#version: 0.2
Ġ Ġ
i n
ĠĠ ĠĠ
Ġ a
Ġ t
ĠĠ Ġ
r e
s t
e r
h e
e n
a t
o r
Ġ =
o n
Ċ ĠĠĠ
Ġ c
Ġt he
l e
Ċ ĠĠĠĠ
Ġ i
Ġ f
in g
Ġ in
Ġ n
u m
a r
Ġ s
d e
i t
Ġ p
Ġ re
r a
Ġ o
c t
l i
Ġt o
m e
st r
Ġa n
ĊĠĠĠĠ ĠĠĠ
u r
a l
g e
at e
s e
i on
u t
Ġ "
r o
en t
Ġo f
Ġ <
Ġ w
Ġ e
in t
Ġ 1
l o
Ċ Ġ
u n
Ġ m
ur n
t urn
Ġ b
Ġre turn
Ġ {
t h
Ġc o
a me
Ġ d
str ing
Ġn um
a n
i v
li st
) :
er s
m p
Ġf or
Ġa r
Ġan d
ĊĠĠĠĠ ĠĠĠĠ
Ġ '
e s
l a
r int
r i
Ġt h
Ġi s
u l
s s
Ġ 2
ct ion
Ġ [
Ġ g
c h
t e
Ġ (
ra y
Ġ 0
) ;
it e
Ġi f
c e
Ġnum b
de f
e l
or d
m ent
q u
< /
Ġ string
Ġ +
Ġ v
re ate
ĊĠĠĠĠĠĠĠĠ ĠĠĠ
Ġ l
b le
Ġ }
p ut
ra n
un ction
i s
Ġ 3
Ġ ĊĠĠĠ
iv en
Ġ S
Ġ list
it h
Ġ st
r ite
Ġ u
o l
le ment
Ġp rint
Ġa l
t r
u b
at a
u e
Ġar ray
Ġth at
C reate
Ġg iven
Ġ 5
e t
o m
n um
Ġ P
" ,
Ġp ro
or t
W rite
a d
Ġm a
i l
Ġin t
a v
a ge
Ġc on
n ame
Ġ ran
p p
Ġf unction
a ble
ar r
i c
Ċ ĠĠ
Ġco de
x t
v er
( )
' ,
Ġ 4
o de
p t
Ġ C
i f
Ġn ame
lo w
i d
Ġ J
= "
h t
ul t
Ġar r
en d
k e
/ /
Ġnumb er
in d
Ġ1 0
Ġ #
ro m
Ġ ĊĠĠĠĠĠĠĠ
la ss
o d
li c
Ġw ith
Ġ= =
Ġe lement
un t
at ion
g ra
f or
Ġ T
m a
i g
o t
p rint
( "
le t
Ġnumb ers
Ġ F
c k
Ġ -
av a
t er
i r
p e
_ _
Ġ h
Ġd ata
Ġn e
y th
yth on
Ġc h
al ue
Ġf rom
tr ing
Ġ y
gra m
ĠJ ava
Ġran ge
en g
t d
c ri
Ġre s
a ct
) )
Ġu s
eng th
Ġ A
Ġ N
w o
ge t
ar y
Ġw h
Ġ j
a s
cri pt
Ġs e
Ġal l
c o
e d
ĊĠĠĠĠ Ġ
ĠP ython
re n
u ct
+ +
Ġs um
Ġ I
Ġ x
Ġ de
Ġt wo
a se
Ġpro gram
w ord
Ġch ar
Ġt e
o w
Ġ *
" :
Ġf ol
Ġa s
d d
c on
Ġfol low
Ġma x
0 0
" "
- -
ĊĠĠĠĠĠĠĠĠ ĠĠĠĠ
Ġ qu
Ġ str
ut put
Ġb e
Ġfollow ing
e ct
Ġc lass
o u
d i
ub lic
o p
Ġi t
Ġ< /
Ġ me
t a
Ġ >
Ġres ult
re s
Ġ //
v e
' :
Ġf ind
Ġwh i
Ġ Ċ
c c
S tring
Ġw ord
L E
he ad
u s
Ġ 8
Ġa re
Ġ on
Ġ W
Ġe x
Ġ 6
ke y
Ġ ĊĠĠ
i st
C T
Ġne w
d om
Ġ M
R O
er y
en er
] ,
mp ort
l d
l y
Ġv alue
H el
mp le
Hel lo
S E
a pp
in e
or ld
Ġe l
en ce
Ġs el
Ġ D
ge st
Ġsel f
Ġ+ =
z e
num b
i m
m l
Q L
" >
T he
b j
p la
Ġ lo
de x
Ġel se
LE CT
ener ate
Ġc al
re ss
RO M
Ġco unt
Ġ H
a k
l ength
R e
ir st
SE LECT
Ġelement s
S cript
Ġt able
( '
Ġin put
Ġ ĊĠĠĠĠĠĠĠĠĠĠĠ
u st
Ġqu ery
Ġl en
y e
y pe
ar t
ĠJava Script
Ġ O
] ;
ht ml
it le
Ġ 7
Ġc an
++ )
se d
Ġ or
ĊĠĠĠĠĠĠĠĠĠĠĠĠ ĠĠĠ
Ġ B
Ġa dd
s o
te g
i me
Ġus ing
E R
g or
a y
] )
Ġa ge
c ul
o re
o ut
a ch
te m
d ent
Ġ def
Ġco l
Ġ ro
for m
m o
Ġ get
ar ray
Ġth is
" )
i mport
d ata
ta in
Ġ %
ren t
I n
it y
od y
bj ect
l f
ĠS QL
Ġ 9
Ġchar act
in put
a li
ode l
Ġ $
Ġ let
h n
d iv
on e
o hn
Ġb y
Ċ ĊĠĠĠ
M L
ust om
se lf
te d
mp lo
m y
c es
n e
mplo ye
i b
h is
Ġt ype
ith m
he ck
gor ithm
Ġn ot
a mple
Ġin teg
iv e
p h
b ody
i ze
cul ate
T ML
r ue
Ġ le
p er
Ġi tem
ma il
Ġran dom
Ġ key
re e
Ġco mp
Ġc ur
Ġal gorithm
p a
ver se
ord er
l en
st e
um n
Ġ |
Ġd i
Ġp ublic
Ġs et
C on
ch ar
u re
Ġ L
Ġt ak
app end
N ame
f t
i p
ĠH TML
Ġstring s
ri me
Ġf irst
t itle
lo g
[ ]
qu e
so le
Ġtak es
i de
Ġ la
al se
' )
w e
Ġcon tain
f unction
Ġc reate
te xt
Ġlo op
J ohn
o st
Ġd o
u dent
Ġs ort
Ġ ĊĠ
y ste
yste m
ar i
â Ģ
an d
a ck
Ġwhi ch
Ġo bject
a p
ĠW orld
u g
Ġ /
ent ence
s um
Ġco m
Ġo utput
p ublic
u p
al u
d ate
] [
e x
a re
Ġ E
Ġword s
a b
a cc
th od
Ġw e
l u
Ġreturn s
Ġs ub
str uct
s er
at ic
o o
ar ch
r ray
an g
o id
un d
Ġwhi le
Ġe ach
Ġte xt
1 0
Ġ __
ER E
Ġm at
or ted
it ion
Ġ[ ]
Ġme thod
d uct
H ERE
um ent
g ht
( );
ite m
Ġc heck
ig n
c lass
Ġp o
ĠF ROM
Ġb et
p l
Ġw he
Ġcal culate
Ġm y
a m
co unt
ib on
ibon acc
th er
Ġl ength
ver t
Ġus er
ibonacc i
N um
c om
Ġc ustom
numb ers
Ġte mp
G enerate
m at
Ġm in
ri ght
Ġst atic
alu es
Ġ2 0
c lu
Ġu sed
v en
f e
we en
Ġo ut
se t
Ġma in
ĠS tring
di ct
ĠO utput
Ġp a
if y
Ġbet ween
L ist
Ġ end
Ġ r
ad d
numb er
t al
ĊĠĠĠĠ ĊĠĠĠ
il l
-- --
on gest
Ġ order
ction ary
k s
re d
ĠT he
"" "
Ġa pp
ri x
v alue
en c
C o
i le
Ġto tal
Ġp ar
im um
Ġth an
clu de
b er
ĠĊĠĠ ĊĠĠĠ
Ġs h
A rray
mo ve
ari able
ul d
c ol
ss word
" .
Ġv oid
Ġi d
Ġar g
t o
T his
mploye es
le ct
Ġ< <
Ġin dex
" ;
an ce
Ġst ate
at h
Ġ he
Ġ Re
pl it
pla y
Ġinteg ers
b el
i al
Ġint o
Ġs o
Ġn ode
m on
num s
" );
Ġcharact ers
F ROM
Ġp age
Ġcur rent
Ġd is
" ]
ress ion
Ġt ime
ro w
D es
Ġ R
al ary
Ġg enerate
i es
Ġ k
Ġ< =
Ġprint s
s ub
Ġv ariable
Ġ !
) ):
ĠS ystem
Ġst ore
o uld
t on
ri ce
Ġa t
m it
in dex
Ġv alues
ĠI n
Ġex p
N T
word s
Ġm odel
Ġdi ctionary
Ġwe b
> <
Ġs u
ut ton
A R
) ,
o f
ut e
Ġ U
l n
Ġre verse
ou ble
Ġ= >
Ġ! =
t ers
Ġs entence
Ġp rime
Ġy ou
con d
ult ip
Ġ :
ig ht
Ġro w
ĠĠĠĠ ĠĠĠĠ
la bel
Ġd ate
p s
t able
G iven
c ur
print ln
e lement
Ġ un
if fe
re at
ne xt
Ġu se
s ing
Ġp re
Ġla st
o ur
Ġ[ "
Ġl ongest
p o
Ġcol umn
ĠT rue
b ase
' ;
Ġcharact er
e ar
n i
Ġs orted
Ġp er
ma in
' ]
Ġ1 2
an ge
ĠF alse
Ġdis play
Ġit s
Ġpro duct
Ġse arch
b r
mp lement
in ary
D e
s on
} ;
Ċ ĉ
Ġre move
ation s
ma x
Con struct
as h
Ġw ill
Ġd iv
Ġon e
Ġstate ment
p x
m odel
ra in
1 2
in clude
f f
ch o
re qu
Ġ G
or s
pla ce
con st
le s
av e
t ri
Ġstr uct
r iv
I N
h at
s ort
s plit
Ġ1 5
ke d
Ġ head
i el
Ġu p
2 0
: :
an t
Ġst udent
Ġcon vert
ig it
qu ence
Des ign
ali d
Ġ" ""
Ġw rite
iel d
m in
ar gest
Ġs ize
ate s
Ġst art
p on
Num ber
Ġd iffe
Ġs cript
C h
r y
p ro
Ġmax imum
mploye e
Ġ right
or k
pe c
e w
Ġ2 5
Ġ V
Ġm ultip
( ):
[ '
ex ample
W hat
ht t
c ument
Ġe mail
Ġse lect
at or
Ġcon t
pt ion
ar get
ra ct
Ġe ven
Ġname s
O N
y le
re ct
res ult
Ġle ft
ĠN ode
Ġcontain s
ĠS t
Ġcon sole
L L
an a
ran dom
Ġexp ression
v i
H ow
__ (
W HERE
Ġl in
ren ce
( [
S S
con sole
res ent
que st
al l
es s
ĠN one
T able
in it
Ġt rue
Ġo ver
ĠT his
) .
en s
ni pp
Ġh ave
Ġse cond
Ġ li
Ġs nipp
Ġinteg er
p ar
Ġstruct ure
Ġsnipp et
) {
v al
Ġe mployees
Ġe qu
' .
e mail
Ġ1 1
ul ar
ic al
te st
il d
end ing
Ġcustom ers
p y
Ġd ouble
E x
Ġthe ir
t y
Ġg reat
Ġst d
ver age
Ġ10 0
Ġro ot
he l
Ġnum s
Ġs alary
ĠF ibonacci
pp er
Ġ âĢ
Ġs pec
Ġan y
i que
ser t
Co mp
on t
d it
e c
s ize
} ,
ar n
li f
ter n
ve lo
id th
. .
U LL
f rom
Ġma ke
' s
s cript
ĠW HERE
i ble
re q
Ġb re
Ġadd ress
ĠN ULL
Ġpo s
U sing
d o
m ing
o in
Ġo per
ĠC SS
a st
Ġi mport
Ġl ine
Ġcol or
l st
le d
low er
Ġ3 0
Ġ ĊĠĠĠĠĠĠĠĠĠĠĠĠĠĠĠ
up lic
s h
el s
Ġgreat er
Ġmat rix
! "
- >
ĠB Y
ro ot
w w
ĠĠ ĊĠĠĠ
2 5
or y
Ġf alse
ĠĊ ĉ
ss age
ĠM y
ro ug
Ġb inary
velo p
roug h
ur l
Ġe xt
i ent
Ġt a
on g
] ]
at tern
' );
d ay
Ġth rough
Ġlet ter
i z
t ime
b in
g ro
Ġf o
Ġbre ak
v ar
le ft
lo at
Ġb oo
ers on
: //
Ġb ase
Ġh ig
( $
requ enc
Ġ z
Ġe lif
Ġcom mon
ĠI t
d er
S t
Ġc or
Ġc ase
Ġh as
Ġarg ument
A T
u age
Ġa verage
er r
ang uage
v ide
ĠN O
Ġdo cument
S ON
y n
Ġfor m
on ent
Ġdata base
item s
= '
ic k
b utton
Ġi ter
ate d
Ġitem s
Ġcontain ing
Ġcustom er
â Ķ
lic ation
E n
Ġne xt
Ġare a
c he
c ord
Ċ ĊĠ
Ġt arget
Ġre quest
Ġl argest
Ġb o
us er
al ind
c at
la y
cc ur
ĠNO T
E dit
M a
co re
] :
Ġsh ould
c ase
se s
Ġm ost
Ġ[ '
Ġy ear
Ġde c
E lement
Ġ Y
ro me
A B
c i
e xt
Ġte st
Ġsu ch
Ġo ther
Ġm id
ol umn
Ġ> =
ĠJ SON
pa ssword
ra di
ect or
Ġpar ame
riv ate
alind rome
Ġv alid
Ġa cc
Ġm ore
act or
Ġse quence
Ġequ al
at ing
ar d
Ġ &
Ġa b
Ġarg s
if ic
Ġre g
Ġth ree
Ġwh o
Ġon ly
im al
c ending
Ġs ame
hel lo
c al
u ra
app le
gro und
i ali
ack ground
Ġs er
if i
co me
) );
Ġex ample
d ing
Ġw orld
Ġf ield
Ġf ont
* *
Ġthe n
ĊĠ ĊĠĠĠ
00 0
requenc y
st art
Ġcon st
__ ':
Ġf il
Ġpro vide
ĠN ame
Ġwhe re
Ġ' __
Ġpa ssword
R E
ĠĠĠĠ ĠĠĠ
el se
Ġl anguage
re ad
Ġprogram ming
ces s
col or
S e
m b
an ana
ug gest
Ġun ique
> </
S T
o b
ran s
Ġdiv is
F ind
g in
ul l
er ge
Ġs w
Ġus ers
Ġg ra
f ind
ang le
Ġp rivate
ĠI NT
ĠD o
1 1
le te
Ġ{ '
ĊĠĠĠĠĠĠĠĠ Ġ
Ġl st
Ġ[ [
ĠC o
re turn
ĊĠĠĠĠ ĠĠ
ut h
Ġwhe n
) ]
c re
f irst
j oin
Ġre p
ab et
AT E
n ode
ph abet
pa ce
I M
Ġcolumn s
I mplement
Ġw ould
S ub
Ġ Create
Ġt itle
++ ;
Ġcal led
Ġsub string
Ġ .
Ġt ree
Ġpo int
S uggest
qu are
Ġcur r
cur s
pon se
re am
Ġp rice
ce pt
S QL
at ive
at ure
Ġfor mat
ver sed
Ġ `
mp ty
htt ps
Ġme an
s entence
Ġ ord
Ġt ra
Ġre cord
Ġ{ }
ff ic
igit s
Ġcont ent
P I
T o
] );
Ġs m
Ġo dd
A ge
a in
âĢ Ŀ
us h
pla in
mat rix
( (
Ġ5 0
D ata
n er
Ġ err
on th
tr y
Ġrep resent
t rain
re f
it iali
Ġst ack
Ġrow s
radi us
in al
Ġn p
Ġd ay
end er
actor ial
' '
Ġal low
ĠI f
Ġde s
p rime
ĊĠĠ ĊĠĠĠ
h one
Ġlist s
R ow
Ġj son
Ġ} ,
Ġm od
Ġex ec
12 3
5 0
N ode
Ġw ay
qu i
form ation
Ġlin ked
uplic ates
Ġo ccur
S ort
Ġthe m
le ction
ne w
s ite
Ġ ent
d ition
e st
m ut
Ġe mployee
ot al
Ġde p
I d
er as
le an
Ġw idth
ffic ient
al culate
Ġqu ick
ustom er
j son
v ent
D O
Ġ K
Ġco mple
ĠâĢ ľ
R L
p rice
Ġre qui
Ģ âĶ
c ity
te mp
Y ou
t en
Ġobject s
C H
g er
st ance
ĠM ath
ab c
gra ph
ren ces
1 00
R D
r r
re et
Ġi mplement
Ġb ackground
Ġh and
Ġle arn
Ġdiffe rent
Ġde lete
mo unt
M y
P ro
b e
w h
Ġs ol
Ġp attern
dent ify
Ġin sert
ĠA dd
ĠĊĠĠ ĊĠĠĠĠĠĠĠ
ĠĠ ĊĠĠĠĠĠĠĠ
ĠRe act
sub string
4 5
Ġf loat
ĊĠĠ ĊĠ
Ġ1 6
De velop
S um
Ġpa ir
ow er
ĠMy SQL
Ġord ers
C RE
E S
Ġ X
Ġp la
Ġm o
Ġco ut
A n
Ġ enc
Ġvariable s
CH AR
Â ł
Ġre versed
Ġ" "
ĠP ro
Ġ ĊĠĠĠĠĠ
Ġst yle
Ġm erge
Con vert
En ter
Ġprint f
AR CHAR
Ġgra de
O utput
Ġper form
Ġext ract
O f
s orted
Ġin formation
Ġme ssage
\ .
ow els
ĠV ARCHAR
] .
e p
Ġ1 8
Ġcon dition
ou s
A t
âĢ Ļ
d u
i x
Ġa ss
Ġp art
Ġcon struct
ĠF or
ĊĠĠĠĠĠĠĠĠĠĠĠĠ ĠĠĠĠĠĠĠ
Ġhe ight
In put
C olumn
Ġt f
st yle
ct iv
Ġto p
al le
ble m
Ġcom m
he n
ra me
() )
---- ----
] +
b o
i ost
el come
Ġint er
Ġpos ition
iost ream
U P
u ild
add ress
ĢâĶ ĢâĶ
Ġf requency
ge x
Ġv ar
ĠA PI
element s
ĠP rint
Ġcal l
ĠDo e
RD ER
a graph
Ġs ide
Ġe fficient
Ġrecord s
O U
c a
t otal
Ġf actorial
th is
Ġ/ >
Ġ html
ĠL ist
Ġwhe ther
sub mit
Ch ar
uth or
C lass
i ce
Ġal phabet
ĠC on
Ex plain
p re
s ide
Ġne ed
H P
ut ion
un try
la s
Ġmethod s
alle st
c y
e ve
Ġ en
he st
it ive
lo ck
ut es
string s
Ġsort ing
ex p
g s
Ġre ad
ĠP HP
e ven
p ush
Ġal so
ĠSt udent
Ġreg ular
Ġf ibonacci
ifi ed
wh ile
l l
w rite
Ġs yn
Ġparame ters
D ate
Ġs quare
Ġre tri
Ġ" ,
itiali ze
b anana
Ġme m
Ġd ist
ta x
o ption
s q
Ġstudent s
ran ge
Ġname d
Ġy our
art ment
Ġcomple x
k eras
Ġp ur
Ġre place
ran d
Ġdiffe rence
it s
Ġpro per
U se
W orld
Ġm an
Ġ== =
Ġ& &
I T
e cho
y p
Ġp ython
char act
Ġlearn ing
B y
a h
Ġa c
Ġt ri
Ġe mpty
Ġm onth
ub ble
if f
ye ar
Ġproduct s
Ġrequest s
V alue
d b
i se
m id
Ġpla ce
Ġcomm and
T ext
p age
Ġf req
el l
htt p
m ine
u res
Ġfo und
", "
ĠA S
ĠA n
3 0
M od
Ċ ĊĠĠĠĠĠĠĠ
Ġa d
Ġf e
Ġm ar
Ġu pper
00 00
Ġhig h
Ġre curs
iv ot
Ġh ow
Ġcomp are
Co unt
ww w
ura l
L ength
c ode
re verse
er ature
la st
Ġ3 2
ol d
Ġmat ch
Ġr un
Ġcor rect
Ġfil ter
F or
Ġapp ro
Ġspec ific
[ "
lic k
teg er
Ġt rain
A pp
N ew
i us
l ue
o s
re place
Ġs ing
Ġh ref
C ase
d a
l at
ma p
Ġdata set
ĠA rray
oo k
Ġn ull
In dex
ĠRe turn
AB LE
Ġv al
ir c
c s
l ine
Ġs c
Ġ- >
co mp
Ġbase d
d f
v oid
al ly
te ct
ph p
Ġcomp onent
P rint
l in
Ġin clude
Ġp hone
Ġe cho
Ġwith out
Ġde ter
ow n
us ing
Ġtime s
tri b
Ġpro blem
ĠF unction
c ent
e f
en se
Ġb utton
an e
ou p
Ġmem ory
} );
Ġt rans
Ġfunction s
ĠC OU
Ġch ange
Ġhig hest
Mod ify
ĠCOU NT
* )
s p
s w
Ġ{ "
ite d
Ġas cending
ap it
Ġapp lication
riv er
Ġ lower
st udent
se arch
Ġpro cess
form at
Ġoper ator
N D
f il
g n
Ġdivis ible
r u
Ġ" );
ĠJ ohn
di an
Ġmin imum
Sub mit
Ġsyn tax
! </
1 5
P E
f ter
i mple
Ġb row
RO UP
Ġkey s
char At
lay ers
H e
P ar
W elcome
g ative
Ġin cre
co ut
Ma x
A dd
w ork
Ġthe y
Ġp op
++) {
Ġdo es
Ġpar agraph
po s
Ġbo th
Ġsw ap
t ype
Ġarray s
ic es
Ġex ist
[ -
Ġ" )
Ch ange
pro duct
: </
n ing
p op
ate gor
po se
c ustomer
Ġ ĊĠĠĠĠĠĠĠĠĠĠĠĠ
Ġf ib
Ġb lock
cur rent
ical ly
Ġconstruct or
I D
o me
z A
Ġp alindrome
lo t
ĠT ABLE
ĠY ork
Y PE
] {
m ith
o ther
Ġres ponse
2 1
C alculate
a ult
Ġa ctiv
Ġp resent
ari es
che s
CRE ATE
X X
Ġt yp
Ġp ivot
() ,
Ġso me
Ġboo lean
Ġallow s
S ystem
b y
v es
il ity
Ġlo g
In t
Ġsing le
li ce
se quence
il s
Ġh ash
CT YPE
ali date
Ġ| |
DO CTYPE
st ate
al y
ES C
Ġretri eve
Ġc ity
Ġs ystem
Ġd p
ĠE x
ĠâĢ ĺ
T ime
b ers
Ġp d
qu ery
ĠD ESC
col umn
ah ren
< !
r it
Ġ1 3
lo c
Ġprovide d
mut ations
A L
w idth
he it
Ġ1 9
un c
po int
Q u
a gram
l ongest
t wo
Ġ low
Ġ" ;
Ġbe low
ĠD river
Ġhe l
ĠU RL
Ġup date
Ġli br
W ord
ul ation
Ġ2 1
Ġ4 0
(" %
Ġweb site
Ġcomplex ity
ahren heit
' ))
I tem
O IN
i ew
u le
u se
{ "
Ġt er
me ssage
Ġ} );
ig h
ĠL o
ĠE mployees
Ġpre v
. "
a les
Ġs k
Ġd igits
ĠS ort
Ġlet ters
ĠĊĉ ĉ
s alary
di o
Ġfield s
) -
e b
n ect
Ġ ĊĠĠĠĠ
() .
cri be
con t
Ġdi ct
Ġerr or
Ġactiv ation
1 9
de d
Ġre gex
Ġ2 4
E T
] ))
ol der
requ ent
Ġsm allest
p ri
ch ine
pt im
ig inal
and as
v alu
Ġ _
Ġa fter
', '
Ġcom bin
.. .
f req
at us
ce ption
Ġcomp ut
irc le
( *)
O RDER
[ :
s core
ustom ers
Ġnames pace
25 5
er t
Ġma chine
op le
res pon
b ug
i ss
j ect
t ic
Ġnum py
": "
Ġacc ess
IM IT
Ġdep artment
Ġpair s
. </
U T
v el
Ġ \
Ġ radius
ter ate
Ġmultip ly
ens ion
E Y
m s
Ġt ry
Ġn et
unt il
a res
st dio
an dom
ĠC heck
Ġde tect
Ġpo ss
Num bers
Ġtri angle
G ROUP
d ouble
v ers
Ċ Ċ
Ġ until
Ġ1 4
Ġv is
Ġv alidate
() {
Re write
Ġcheck s
Ġargument s
ĠCo mp
M ath
f it
u pper
Ġ ?
le ase
le arn
Ġl ar
let ter
as ic
Ġat trib
:: -
Ġan other
Ġv owels
ĠT able
ĠD ate
Ċĉ ĉ
1 4
g le
er ic
Ġde velop
Ġposs ible
[ ::-
v alues
Ġ ]
Ġs ent
al ance
ĠS e
Ġst o
Ġse en
Ġle ss
ens or
mb da
rr or
a pe
t ree
z ed
Ġa mount
Ġt up
lo se
Ġwh at
Ġme dian
') .
ĠG et
Ġpos itive
Ġiter ate
du ce
P rime
o bj
Ġn o
lo ad
ĠĊ ĊĠĠĠ
Ġcor respon
" }
o ve
Ġresult s
Ġla y
com mon
Des cribe
Ġmultip le
B uild
i ment
le m
Ġ2 3
Ġta ke
user name
L ine
at ures
Ġc ent
ir d
Ġj ava
ĠI D
ĠI terate
! /
A X
S tr
` `
w orld
di m
ta ils
< ?
f a
Ġwith in
as k
Ġrequi red
apit ali
# !/
7 8
Ġa ction
Ġs imple
Ġp erson
Ġp ower
By Id
lat ten
' ])
: ",
u ff
z y
Ġs ample
ĠP erson
id x
Ġ- =
us ers
ĠM ain
") .
Ġcomp ute
Ġwho se
Ġent er
Ġdeter mine
Ġbrow n
Ġcorrespon ding
( {
6 4
D ense
P a
Ġw ork
In teger
Ġhe re
Ġdisplay s
Ġfo x
Ġhand le
E mail
M ap
f ul
Ġp e
Ġ< -
te red
ĠN um
Ġdef ault
els ius
9 9
a ut
in ked
Ġa v
Ġre n
Ġre pe
ĊĠ ĊĠ
Ġg ender
ind ow
ne ction
Ġparame ter
las ses
rand int
D E
E rror
c or
h older
v ector
Ġi dentify
Ġd igit
ĠS et
Ġsk learn
: ]
[ ],
h i
ri ces
ub y
il y
Ġqu e
Ġline ar
Ġoccur rences
App le
Ġlibr ary
F F
b ash
f o
p lot
Ġb asic
et ch
con tain
ĠE mployee
ĠIn itialize
Ġdate time
O bject
e y
i e
Ġre mo
ent ial
Ġ1 7
Ġcal cul
do g
ĠK EY
45 6
l t
v ed
Ġ )
qu ares
ver y
ĠJ OIN
Ġ10 00
ck et
get Element
Ġli ke
ura cy
Ġsm all
. ")
o utput
} )
or ks
le x
ri es
Ġj um
Ġnode s
iz er
Ġday s
ension al
. """
I dentify
f low
f ile
Ġ ĊĠĠĠĠĠĠĠĠ
re move
er o
ar k
Ġre d
Ġan agram
Ġb ubble
Ġ2 2
= =
Ġ Hello
it ch
Ġd uplicates
Ġ[ ];
Ġdo g
Ġrecurs ive
sp an
Ġnet work
? >
O P
a x
j s
o se
t ies
Ġs core
ction s
my list
Ġpre dict
uplic ate
charact ers
o int
p date
u al
v alid
er tain
he ight
Ġs plit
Ġw as
Ġbe st
Ġdef in
Ġspec ified
Ġboo ks
Ġpur pose
c d
Ġf ast
Ġe as
Ġ2 8
od d
Ġ* *
Con t
ant ity
3 2
D o
d le
f loat
Ġc ertain
Ġb lue
Ġ' )
ment s
Ġdi rect
ĠR uby
Ġper mutations
script ion
Ġser ver
bo x
getElement ById
! ");
U M
g re
l argest
r t
t ing
ĠĠĠĠ Ġ
Ġb u
ta ck
Ġ8 0
are a
ĠE n
Ġass ign
Ġin stance
un ique
Ġb order
Ġ' '.
ĠC olumn
Ġor iginal
Ġpar se
AR Y
vi ce
Ġtra verse
k ing
t arget
y y
Ġc a
Ġin d
ĠA pp
Ġdec imal
C ode
a ke
k en
n o
Ġ @
reate st
Ġpa ss
reat ing
cho ice
ifi er
Ġenc ry
Ġplace holder
+ =
A rr
v ol
st ack
Ġf ile
Ġg ro
Ġ( '
Ġ4 5
Ġcol lection
Ġmultip lication
lay er
Ġerr ors
ĠPro gram
Ġlower case
D B
p en
w are
gra de
ĠA ge
ĠĠĠĠĠĠĠĠ ĠĠĠĠĠĠĠĠ
Comp ute
L o
l ate
Ġi mp
me an
Ġe very
Ġv ector
ĠT o
Ġexec ut
! ")
1 6
R IM
T rue
d uplicates
re a
or ange
Ġp andas
li ent
la g
char s
Ġta g
= {
T h
d ers
f ore
n ot
p attern
or ma
Ġfind s
Ġla zy
ap i
ang o
pl t
vi e
ci i
RIM ARY
orma li
T ree
a c
o bject
v ing
w ise
Ġb ody
an y
Ġ( "
Ġl ong
ad ing
ĠW eb
par se
St ate
Ġsol ution
Ġproper ties
valu ate
0 1
; ">
d igits
Ġ ĊĠĠĠĠĠĠ
re st
Ġi m
li sh
ur se
ĊĠ Ċ
un ct
Ġ' ''
ĠD ata
" ))
c heck
Ġa uthor
re lu
Ġc lasses
an ner
Ġne gative
Ġse par
res ponse
"> <
Ġcount s
ath er
Ġser ies
Ġque ue
J ane
Ġp ath
Ġo ptim
ers ion
Ġ} ;
ol s
ĠP RIMARY
let ters
pe ct
di ctionary
Ġsize of
Ġab out
Se arch
S et
t op
Ġre v
Ġo bj
Ġ( $
ĠS mith
Ġpro ces
if t
if ul
Ġde tails
Ġ$ {
ph er
ong o
Ġupper case
Ġtyp es
aut iful
F ield
M E
ĠĠ ĊĠĠĠĠĠĠĠĠĠĠĠ
Ġc at
Ġthe re
Ġs pa
it ies
th ing
age s
Ġsub array
Ġdes cending
dim ensional
F ibonacci
f ibonacci
in ct
ch ase
ĠP age
key s
ph one
Ġsh ow
do cument
Ġexec ute
D i
U ser
e k
â ķ
Ġd uplicate
ĠS w
et er
end s
ĠF ind
as ing
Ġdef ine
Ġalgorithm s
ĠCo unt
fil ter
L IMIT
p ost
in c
Ġa ut
() );
Ġhead ing
AB C
Ġcent er
Ġpe ople
2 4
P ython
V iew
c lick
w ith
Ġb old
an s
Ġg reatest
el y
name s
Ġbe gin
Re ad
ft ware
Ġoper ations
Ġsol ve
Par se
C ol
V G
Ġc reating
Ġp ost
Ġj oin
ist ic
Ġinput s
Ġtemp erature
St udent
cs v
5 5
9 0
B ob
F unction
K ey
c ar
f rame
Ġ url
in sert
Ġs co
th ree
Ġd iff
Ġ2 00
ic ks
Ġapp ear
Ġhe ap
Ġrequi re
ategor y
a mount
b ar
Ġ und
ction aries
arr y
ĠC ode
pe ed
ĠA ND
Ġuse s
Ġcont in
ĠX ML
Ġdist ance
Ġexist ing
contain er
P lease
W e
b ack
t body
st d
Ġc apitali
ch ild
Ġv ersion
Ġ3 4
ĠC alculate
row s
Ġdiv ide
Ġpoint s
\. [
Column s
iss ing
Ġattrib utes
Ġren der
. *
= (
H TML
n av
Ġs pace
Ġw rit
Ġcon s
Ġclass ify
Ġla bel
Ġstart ing
ĢâĶĢâĶ ĢâĶĢâĶ
fa ce
p alindrome
Ġcon cat
ĠA VG
Ġfind ing
Ġkey word
Ġstore d
Ġboo k
cont ent
F irst
T wo
e autiful
o od
o und
Ġ );
Ġc l
Ġf lag
al f
ĊĠĠĠĠĠĠĠĠ ĠĠ
Ġ' '
ma le
"> </
ĠH ash
De f
yn am
Ma ke
Ġmid dle
icks ort
' d
1 8
er age
li b
se cond
int e
il t
av erage
Ġch ild
as cii
Ġte ch
ĠM ongo
we ight
Ġsub t
Ġprime s
vi ous
ient ed
Ġsto res
) /
S oup
f unc
l er
t head
he re
de c
Ġw orks
Ġco untry
Ġ( )
Ġ3 5
ind er
ĊĠĠĠĠĠĠĠĠĠĠĠĠ Ġ
cc ess
Ġcount er
ab ility
Ġcalculate s
Ġuser name
add ing
ĠU s
Se lect
Ġmerge d
sq l
sw er
pri ate
Ġsmall er
eautiful Soup
' }
A lice
O r
[ [
a g
c reate
u es
qu ential
Ġbe en
ĠO r
Ġend l
iffe rence
Ġsw itch
Âł Ġ
hen s
exp ort
Ġac cept
Ġappro ach
unct u
O ST
d is
ĠĠĠĠ ĠĠ
Ġn th
Ġ" +
Ġth ird
)) )
ĠH e
Ġdi ctionaries
Ġmat ches
Ġperform ance
Ġappro priate
Ġsent iment
$ {
) +
2 3
> ();
N ER
U pdate
b ine
d igit
d iff
h ost
t f
Ġn on
Ġre l
Ġco py
Ġran d
Re g
las k
charact er
Ġfe atures
ĠNum ber
Ġgro up
E ach
p ort
} </
re hens
en ces
Ġe ith
Ġth read
ĠS UM
Ġro t
Ġle ast
ĠL inked
Ġlin k
Ġeith er
^ [
Ġc ircle
Ġf ive
ra w
str ong
Ġan aly
ma inder
Ġne ural
ĠB eautifulSoup
loc ation
* (
F rame
b ook
o ci
p ted
p erson
Ġin st
an k
Ġ2 6
Ġst or
Ġde bug
ĠM AX
Ex ample
Ġspec ial
Ġman y
K E
l s
at rix
or iented
lo or
Ġco uld
ana ger
'' '
Ġass oci
Ġbu ilt
rehens ion
6 0
8 0
C lick
st a
Ġp adding
Write Line
for Each
ĠL I
Ġsu per
Ġdes ign
Char act
ru it
Ġvis ited
Ġimp ro
ĠMongo DB
' ],
+ --------
A rea
B anana
R andom
S er
U pper
b inary
f loor
i pher
k es
l ar
m ar
m ultip
p th
p ath
Ġf act
Ġs q
Ġs im
Ġo pen
ur ce
Ġ" __
la mbda
ĊĠĠĠĠĠĠĠĠĠĠĠĠ ĠĠĠĠĠĠĠĠ
') ,
Ġcreate d
Ġcom ment
Comp onent
Âł Âł
ĠCon sole
Ġcons ist
- ]+
C om
e mployees
Ġs quares
Ġe vent
Ġ2 7
Ġg ener
pp ing
Ġex ception
Re turn
Ġadd s
que ue
Ġweb page
Ġad j
ru its
Ġcomput er
cor rect
Ġjum ps
Ġanagram s
< =
N o
c anner
g ender
t he
v ies
in ner
er ate
Ġin itialize
de red
se ction
se lect
Ġco st
ul ate
ĠF irst
__ ":
Ġ12 3
ĠSt reet
Comp are
ĠAdd ition
ĠArray List
B utton
] #
a uthor
at ural
Ġf etch
is ion
Ġcon nection
ĠC ustomers
ĠO RDER
Ġ9 0
Ġcomp rehension
Ġr ate
Ġsu it
iz ed
Ġinsert ion
Ġdist inct
Ġmar ks
comp ile
Qu ery
Ġlar ge
( ?
, "
E G
t om
Ġf our
Ġf requent
Ġin it
Ġs p
Ġe lem
Ġadd ition
hel l
ific ation
read y
ca le
Ġen um
For mat
igh b
Ġlay er
1 3
g ing
i a
o k
Ġ ,
in k
re act
on d
it es
li mit
ro p
ro ss
Ġb ut
Ġd ynam
Ġg u
pe d
co st
Ġ* /
-- )
Ġ6 0
ĠO bject
Ġcreate s
Ġsort s
Ġbo x
student s
ME NT
ĠAddition ally
I ST
O DO
[ \
Ġf lex
Ġre ct
Ġm ust
Ġex cept
Ġtable s
Ġoutput s
ex cept
Ġmy list
Ġ20 20
vi ew
Ġac count
Ġmar gin
Ġsome thing
4 0
A l
Y Y
r inc
s m
Ġf latten
Ġs ign
Ġb alance
Ġnum er
qu al
od ing
ĠB ash
and ard
Ġlast Name
ni que
Ġext ends
Ġdivis or
Ġpoint er
Ġmod ule
ĠPro duct
Ġpart ic
Ġdirect ory
ĠLI KE
rinc ip
C heck
M in
O ne
T P
U RL
j or
o ver
x y
x ml
Ġt ask
er ry
Ġs y
Ġp layer
Ġ" ))
Ġg cd
Ġal ert
ĠP oint
ĠC h
ĠC ar
ĠT est
Ġbe ing
mo st
ĠL ast
Ġhe x
20 20
Ġab s
Ġrepe ated
Ġconcat en
dec imal
> {
C D
D eter
R es
T rans
U n
h er
i er
v ant
or g
ut il
Ġ" ";
list s
te rest
Ġqu icksort
ste ad
Ġpre vious
our s
iz ation
Ġz ip
Ġprovide s
reet ing
Pro duct
Ġpur chase
Ġhel lo
Ġtup le
unctu ation
T e
[ ])
c ation
f requency
h igh
l ing
Ġ ra
st ed
Ġn atural
Ġp h
ĊĠ ĊĠĠĠĠĠĠĠ
def g
Ġ5 00
ot tom
Ġset s
Ġpa rent
Ġyear s
temp erature
Ġmo vie
sq rt
Ġpop ulation
XX XX
Word s
Ġav g
Ġind ices
Def ine
! ";
% ;
3 3
4 4
a i
c ut
Ġ ĊĠĠĠĠĊĠĠĠ
iv ely
tr ue
Ġj ob
con n
-- ;
ĠM e
Re place
ser ver
Ġlength s
to String
Ġmodel s
ĠU ser
par am
Ġta gs
âĶ Ĥ
Ġdec la
ensor flow
Y ear
f ib
f ix
Ġ ĊĠĠĠĠĠĠĠĠĠ
st atus
Ġin vol
Ġs hell
me ta
Ġ" $
ro id
Ġe dit
Ġm issing
Ġis Prime
Ġst atus
lic ations
Ġ> >
ĠO N
ph a
Ġmat h
Ġso ftware
mon th
ĠIn t
Ġ!= =
Ġli mit
ec ute
Ġcontent s
CRE MENT
Class ify
Ġenum erate
Ġpartic ular
1 7
D ATE
M onth
P rice
P alindrome
e e
g enerate
s ample
z ing
Ġa m
al phabet
lo b
Ġm ult
ir th
Ġcomp ar
Ġbet ter
fe rence
Ġlar ger
Ġexecut ed
C ar
D ay
G ra
b ackground
z z
en u
Ġn av
Ġs b
Ġp as
ord ing
ĠA UT
Ġ* =
cul ator
mat ch
ĠR andom
IN NER
IN CREMENT
che d
Ġ` `
mut ation
ĠAS C
ĠĊĠĠĠĠ ĠĠĊĠĠĠ
2 2
e red
v owels
Ġ ;
Ġ http
Ġ ...
er n
Ġc ar
Ġin stead
Ġs oup
Ġp ri
Ġp ie
ro l
iv al
=" #
++ .
ali gn
my List
per i
clu ding
Ġso urce
ĠIn teger
Ġlin es
Ġacc ording
Ġfil tered
Ġtrain ing
Pa ssword
ĠEn g
Ġund er
Ġsubt ract
Ġstor ing
Deter mine
ĠAUT O
C ell
O range
P hone
m n
Ġc lose
Ġto ge
Ġw indow
Ġb uild
Ġco urse
Ġ' .
Ġ3 6
con nect
Ġbe fore
di a
Ġr ule
sh ape
123 456
Ġoccur rence
ca use
lin k
Ġincre asing
product s
Ġspa ces
xy z
Ġtoge ther
A ll
E N
b out
u x
z ation
} $
Ġ ens
Ġ https
in s
Ġn ormali
Ġ3 3
il ar
ĠJava script
ren cy
String s
ĠD e
Ġle vel
Ġfirst Name
am ily
pro ps
Ġdocument s
Ġiter ation
Ġenc ode
ĠReturn s
AL U
Build er
sta mp
Ġinit ial
P OST
\ /
] *
^ \
e le
j k
u d
x x
Ġt ensorflow
Ġ" <
Ġg re
Ġ( (
ub e
ad er
ĠC elsius
Ġde scription
Ġbe cause
Ġget Name
Ġwe ight
Ġhead er
Ġselect or
ci ence
Ġtra ck
Ġproper ty
Ġrun ning
Ġexist s
Di ct
= $
S entence
S mith
T est
e mployee
{ '
Ġ q
Ġf ore
Ġre duce
Ġo b
Ġd f
Ġg o
ĠS tack
div is
Ġla mbda
Ġsub mit
Ġend point
Ġapp lications
Ġsu ccess
cur r
Ġmod ified
ĠFor m
Ġincre ment
load s
Ġappear s
ĠOr ders
Charact er
ond on
2 8
C ur
S A
] |
p ow
u zz
w ard
Ĳ âķ
in ce
st ract
xt ract
eng ine
as ks
Ġqu antity
tri cs
Ġoper ation
Ġfe ature
Ġchange s
ĠĊĠĠĠĠĠĠĠĠĠĠĠĠ ĠĠĠĠĠĠĠĠ
lt k
ÂłĠ ÂłĠ
Upper Case
Ġsuit able
ival ent
T E
] }
d ifference
g gle
k i
s ent
s quare
t up
u do
Ġc lic
le vel
Ġin cluding
Ġs ales
Ġre main
ra se
lo op
Ġd own
Ġ' ,
is h
ĠP ar
ĠF ahrenheit
acc uracy
oo gle
Ġequ ivalent
Ġz ero
Ġother wise
Add ress
ĠEx ample
Reg ression
Ġassoci ated
L e
L ast
W W
\ \
a cent
r on
r ate
s is
Ġ ke
Ġc lient
Ġf ix
Ġin str
Ġin side
Ġn ltk
um e
Ġre mainder
ri d
Ġg ame
Ġ+ +
Ġma king
ou se
pa ir
Ġpre di
De bug
ĠMy Class
Element s
abc defg
An aly
uff le
Ġimpro ve
inner HTML
" ];
P T
S orted
T itle
Y Z
e ps
f er
f amily
Ġa ct
Ġc ipher
Ġi dent
Ġf inal
Ġo ld
ĊĠĠĠĠĠĠĠĠ ĊĠĠĠĠĠĠĠ
la ble
Ġprint ing
av ing
Ġcon cept
Ġcon nect
ĠT ree
Ġwh ite
ĠI N
ĠM O
SE R
Ġlo cal
Re verse
ĠOutput s
Ġk n
Ġsu pp
Ġun sorted
Ġmultip li
Ġmod ify
Ġpart ition
vers al
Ġdevelop ment
Ġtup les
Cont ent
Ġencry pted
Ġwrit ten
Ġdynam ic
' t
D iv
G H
c ustomers
f requent
g ular
i red
w ay
Ġ Generate
he d
ar gs
ra cket
se cut
Ġb ug
Ġma y
ĠC ustomer
end l
ĠA l
di stance
Ġloop s
oo ks
oo lean
---- --
ana gram
Ġcomponent s
Ġdeter min
He ading
Ġtyp ically
EG ER
M e
P er
f oo
m ber
w i
Ġc arry
Ġan swer
Ġb ack
mp t
ic s
od ay
ma ke
Ġne sted
ĠI P
Ġon click
Ġadd ing
requenc ies
che ma
first Name
pre dict
For m
line ar
Ġhel p
ĠSw ift
Or der
Ġnav ig
) //
. '''
= ['
H i
O bj
b a
j ohn
l mn
he et
Ġin her
Ġn ow
ut er
Ġe t
Ġd one
an um
ĊĠĠĠĠĠĠĠĠ ĊĠĠĠ
Ġ[ -
Ġv er
Ġal ready
ĠC ity
co untry
head er
ĠB inary
ph anum
ĠR E
ĠV alue
pos ition
Ġter ms
ĠLo op
Ġav ai
ĠWeb site
Col or
Select or
Ġpas sed
jk lmn
7 0
C A
I t
T TP
f ield
q r
w n
} ")
at ors
Ġe valuate
an ces
Ġ' ';
ce ls
el low
Ġv iew
ĠS um
ĠN o
Ġx ml
mple te
Ġcomp any
Ġ/ *
Ġcom bine
ĠString Builder
IN G
Ġimport ant
Ġreg ression
ĠINT EGER
Ġmo ve
Ġpart s
lob al
Ġens ure
secut ive
cels ius
! '
% ';
= [
E mployee
b lue
c lose
m strong
p ython
z er
z ip
Ġ ĊĠĠĠĠĠĠĠĠĠĠĠĠĠĠĠĠĠĠĠ
in stance
re quest
re cord
int er
Ġ' %
la ck
Ġv ari
Ġma kes
Ġ- ->
Ġdata frame
ĠI S
ect angle
Ġcount ries
pa rent
com bin
Ġapp end
ĠU n
Ġdate s
12 8
gro up
Ma le
Ġacc es
Ġab ove
cess ary
âĢĿ ,
ĠĊĉĉ ĉ
Ġeas ier
Ġproces sing
Ġadj acent
phanum eric
" ],
/ >
A d
G ood
L ower
T ype
V alid
X YZ
d one
m er
Ġt asks
at s
Ġp rices
Ġto day
se q
ion s
Ġco ding
Ġd b
ĠS canner
Ġst andard
il li
av or
Ġ4 2
id ing
print f
ĠA r
LE TE
Ġnew Node
to ken
mon g
model s
Ġab stract
exp ression
hi jklmn
Ġsco res
="# ">
Ĳâķ Ĳâķ
Ġremain ing
qr st
( `
A bout
[ $
] ])
d en
o ccur
t p
w xyz
Ġ Qu
Ġ engine
Ġa li
he m
Ġc ell
Ġc elsius
Ġf oo
de scription
Ġp ack
ra ction
Ġb ar
list en
Ġar tic
ord in
ad am
Ġma p
ver ted
Ġqu est
Ġbe h
Ġit self
Ġlo cation
(' /
Ġcan not
ĠL IMIT
par ser
Ġta x
iz z
cal culate
Ġalphabet s
Ġalphabet ically
ĠArray s
query Selector
Ġcombin ations
Ġattrib ute
Ġdevelop ers
plot lib
3 5
: "
A verage
E X
E ven
G ET
H ome
S alary
b alance
c ing
d own
e lem
i re
u v
u ary
} #
Ġa x
re es
at ch
or ity
Ġf ull
Ġs ince
Ġp lt
ra p
lo cal
ame ters
ch ange
Ġst ar
ĠF lask
act ive
ta g
ĠD ef
Ġnot ation
[] []
ĠĊĠ ĊĠĠĠ
Ġsub tree
Ġmat rices
enc ode
ĠIn put
Ġdiffe rences
Ġlin ks
day s
St art
En d
Ġacc uracy
curs or
Data Frame
Ġinter face
Ġside s
Ġalphabet ical
Ġcalcul ating
Do e
Ġbegin ning
inte ger
Ġinvol ves
Ġavai lable
hijklmn op
' },
( -
E LECT
L ink
M atrix
N one
a a
f ect
m m
o ice
Ġ Write
re g
he ap
Ġp ush
Ġo ption
li d
al culator
Ġ" .
Ġof f
Ġb ash
te p
ĠS ELECT
Ġpro ject
ĠT ext
ĠT ODO
ĠN ew
di st
Ġex plain
ĠD ep
Ġlo ok
Ġ7 0
IN CT
Ġexec ution
vent ory
Ġretri e
Ġcapitali zed
Ġanaly sis
IST INCT
Ġsy mb
Ġclose st
Ġclic ked
Ġinstr u
qrst uv
hijklmnop qrstuv
1 000
2 00
B ook
C an
F e
L et
W ith
] """
a ction
b ability
j ango
l us
m an
s u
s ales
v ir
v ices
y per
} `
en ame
Ġp rincip
ro ll
ce d
Ġst ep
Ġ4 00
ation al
Ġh old
Ġh alf
Ġh aving
co py
ĠĊ Ċ
ĠĊĠĠ ĊĠ
ĠĊĠĠ ĊĠĠĠĠĠĠĠĠĠĠĠ
Ġ7 5
ĠB ubble
In sert
set s
Ġso lid
Ġconvert s
([ [
ess age
UP DATE
Ġproblem s
Ġtrans form
apit al
78 9
DE F
Ġrot ate
Ġgre en
SER T
0 2
A r
A ND
J ava
Q R
S core
e ach
e lif
s v
t rans
Ġp ort
Ġo l
ur ing
ro t
ro py
Ġb ig
ame l
an f
ri s
ch erry
ĠP ost
Ġpro duce
id den
Ġse c
Ġfollow s
data base
In correct
ne gative
ft max
and le
am s
List ener
next Int
Ġper mutation
ess ion
Ġequ ation
Comp ose
find all
Ġdep th
Ġcomple te
be gin
ĠCon vert
Ġman age
Ġinclude s
Ġfast er
ĠProgram ming
Ġlong er
Ġcat ch
Ġfact ors
Ġpie ce
Ġke ep
abcdefg hijklmnopqrstuv
" },
) *(
2 7
3 6
< >();
> ";
C E
E mployees
F rom
M odel
O R
P oint
S h
S u
S tack
a decimal
re gex
on day
Ġc ategory
Ġf ill
de s
Ġp y
li s
Ġ" \
Ġb s
iv es
Ġ( !
def in
ol ve
Ġma int
ĊĠĠ ĊĠĠĠĠĠĠĠ
ĠT itle
__ __
Ġne ighb
ĠI tem
Ġde l
Ġchar s
Ġfollow ed
Ġclass ification
Ġon ce
ĠW e
ĠM ove
ime ter
div id
pa city
Ġconst ant
Ġmean ing
Ġvar char
Ġmar k
cent age
fil tered
Ġlog ic
UT F
Ġsto ck
DE LETE
Ġcalcul ator
Ġtech nique
ĠProduct s
Ġnavig ation
$ /
, -
- %
. ");
: %
D D
G ender
N e
i str
p i
u ce
Ġa g
Ġf rame
Ġf unc
Ġin terest
Ġin divid
it u
ra ce
ra verse
me tic
ro ute
ri de
Ġth row
Ġ2 9
ĠS alary
ith metic
Ġst eps
av i
ic le
Ġne cessary
-- -
Ġme trics
ex ecute
Ġmat plotlib
Co untry
Ġlast name
ĠV ector
Ġrepresent ation
prime s
Ġent ries
last Name
lin es
pos itive
column s
cont act
ĠSe arch
Ġremo ved
Ġsepar ate
ĠUs ers
dis play
Ġsim ilar
Ġdecla red
peri ence
Ġunder st
Ġinher it
Lower Case
avor ite
vir on
abcdefghijklmnopqrstuv wxyz
" ])
M M
P A
V al
V ector
c m
e mpty
p tr
r c
r un
y m
} ]
Ġ ut
er ing
or m
Ġc ities
Ġc ube
Ġf ruits
Ġo s
al pha
se udo
is on
ĠS plit
=" ">
ĠT h
(" \
)) ,
cc up
ach ine
Ġ$ (
Ġcomp ile
10 1
count s
Ġr ating
Ġapp ly
col lection
Ex ception
ĠINT O
Ġimplement s
Ġmo vies
Ġgrade s
Ġad vant
Ġrecurs ion
Ġcombin ed
ABC DEF
Ġsq l
Res ult
Ġet c
hem atic
Ġindivid ual
( /
4 3
L inked
W E
b it
f i
m ary
t es
Ġ âĶĤ
Ġc ard
Ġin itiali
it er
Ġre f
Ġb racket
Ġ' *
Ġis instance
qu antity
Ġ3 1
ĠS er
Ġma de
=" /
Ġse lection
ow el
ect ors
op en
], [
Ġcal c
Ġfirst name
ĠE mail
ser if
Array s
to LowerCase
index Of
Ġreverse String
base d
Ġper m
IN SERT
Ġiter ates
lay out
mb ers
first name
Sub string
Ġpattern s
Ġlabel s
ĠLinked List
ĠDef ine
" {
7 5
7 6
< <
C ity
D uplicates
E xtract
I I
J K
L M
P os
S o
W XYZ
a e
f ig
f actorial
m od
o ptim
Ġa w
or dered
Ġc m
ar range
Ġs low
Ġp ut
Ġre al
ro d
et s
Ġcon n
Ġcon secutive
di rect
ist er
Ġlo ss
ĠB ase
Ġset Name
ĠL ine
Ġcom ma
Co mplete
to UpperCase
po ch
Ġdisplay ing
ĠSt ore
Ġsecond s
sh ow
Ġdec lar
ĠY ou
Ġlanguage s
Ġdes ired
ĠAdd ress
Ġad ded
Ġbrow ser
Ġincre ase
Ġdefin ed
Ġind ic
pect ed
Ġcontin ue
child ren
ĠHash Map
sm allest
ALU ES
Ġsupp ort
GH I
Ġunderst and
' ];
: ])
< >
A c
T ake
U SA
Y es
] \
a ss
b n
d ir
e h
e qual
f in
i li
n es
re v
st reet
or test
Ġs ans
Ġp seudo
Ġre ce
ra l
ent ropy
Ġg en
Ġl ate
is play
et ri
om ial
om ain
ĠP andas
let ion
Ġde ep
Ġclass ifier
ĠĊĠĠ ĊĠĠ
ĠH TTP
Re quest
ĠB ET
per mutations
ang ular
Ġmat hematic
---- +--------
ĠRe verse
Ġpage s
Ġtime stamp
ĠR ectangle
Ġk eras
ĠIn sert
Ġexp onent
Ġ: =
ff ect
Ġstruct ures
Ġstart s
pro blem
lower case
Ġsw app
uth ors
Ġsubstring s
Ġtra versal
Ġcall s
ĠCon struct
Ġen viron
Ġchange d
ĠLo g
Ġwork ing
ĠHello World
Cont act
Ġaut o
Ġnumer ical
Ġcompar ison
Analy ze
ccup ation
WE EN
ĠBET WEEN
! --
: ',
E mpty
T rain
V WXYZ
b l
o ol
t xt
} \
ĠĠ ĊĠ
Ġt k
or iginal
ar g
Ġs i
Ġs cal
de pth
me dian
ro und
Ġ{ };
Ġ' -
Ġl ang
ĠS ub
av id
ĠC ont
od er
ĠT rain
ot er
Ġres our
co res
ĠD ATE
Ġlo gin
date time
count er
Ġreverse s
De pth
Ġstatement s
ry pt
Ġcont rol
py plot
Comp ile
err or
Ġmean s
abc abc
ĠStudent s
Ġsent ences
Ġdefin ition
Com mon
illi on
Ġbeh avi
QR ST
JK LM
ĠLine ar
JKLM N
0 5
F alse
O ver
S ize
T om
U VWXYZ
f ont
n a
n y
n ow
t hen
y s
} '
Ċ ĊĠĠĠĠĠĠĠĠĠĠĠ
Ġa ble
le ted
Ġs peed
Ġre pla
Ġw ell
Ġm ode
Ġb ottom
Ġ' {
Ġ' ',
ol ute
Ġ5 5
Ġ5 0000
ĠP rice
ĠT raverse
(" *
res ses
ĠW hen
Ġ6 5
ener ator
ib ility
Ġsub sequence
ile s
Ġsh are
NT H
Ġsearch ing
pro cess
vi ation
come s
Se quential
Ġquick ly
Ġinter pre
Ġman ip
Ġsc ra
Ġsystem s
ĠEx p
upper case
Ġbubble Sort
OP QRST
gre en
Ġproces ses
ĠSw ap
ĠCount er
Ġconcaten ate
ĠEng lish
Ġali gn
EX T
defin ed
GHI JKLMN
Ġenviron ment
OPQRST UVWXYZ
GHIJKLMN OPQRSTUVWXYZ
) **
9 5
: \
: ")
> ,
D I
M ary
M anager
Q ue
U B
U s
b ye
d ic
e fficient
f our
g ment
h alf
m ango
p art
s lice
u ally
v ariable
} :
ĠĠ ĊĠĠĠĠĠĠĠĠĠĠĠĠĠĠĠ
in f
in ation
re pe
er atures
Ġf a
Ġf ahrenheit
Ġf requencies
Ġp i
Ġan s
se par
Ġe valu
lo ud
Ġreturn ed
an o
Ġ' \
te l
et y
Ġpro bability
Ġpro ced
av g
Ġfunction al
ĠC ol
ĠF inal
Ġh yper
++ ]
res h
ĠM o
ĠD i
ĠD ISTINCT
so ftmax
]) ):
Ġwe ek
enc y
ĠU se
Ġmultip les
Ġcont act
vi sed
Ġdec ision
Ġrepresent ing
Ġway s
abc d
bo ard
Ġinter section
Ġmonth s
vers ing
Ġencry pt
Ġinst all
Ġconsist s
ross entropy
Ġhex adecimal
Ġob tain
Ġkn own
local host
lis hed
ABCDEF GHIJKLMNOPQRSTUVWXYZ
Ġmathematic al
2 6
8 5
B ase
N N
a f
c apitali
f etch
re versed
Ġc ategor
Ġthe se
Ġf actor
Ġn one
Ġs ay
Ġs ure
al s
al gorithm
Ġth ose
Ġpro mpt
ĠC a
ĠC ircle
unt ime
Ġh ours
Ġj Query
Ġse ar
Ġchar set
ph ant
Ġmy List
Ġmin utes
ĠThe y
Ġser vice
Pro vide
âĢĻ ,
hen tic
Ġcall back
last name
Ġsc anf
Ġtrans pose
pop ulation
point s
Ġlow est
ĠSe quential
no log
Th ree
pect ive
Ġcapitali ze
Ġcl ust
Ġgu ess
Ġrect angle
Ġabs olute
Ġpurchase d
Ġph rase
Gra de
Ġacces sed
Ġartic le
lus ive
optim izer
. '
C ustomer
E vent
F low
I G
I ON
J AX
M onday
O n
P erson
V AL
c ategory
c rossentropy
e m
f ive
f ahrenheit
i an
n n
n et
s pec
s quares
t n
t tp
u la
u ous
y les
Ġ Z
ĠĠĠĠ ĊĠĠĠ
Ġf ruit
um ps
de p
Ġp unctuation
ra mid
li ght
Ġto ken
al aries
se lection
Ġ< !--
Ġnum eric
ĠT ensor
ĠT EXT
ma g
ĠA s
Ġde leted
Ġstr len
Ġme t
Ġme mbers
ve c
Ġex perience
ĠM ax
Ġor g
Ġget Age
mat h
Ġr untime
ber ry
Ġsh uffle
col s
ĠR es
Ġexp ress
Ġun it
reat er
ĠG ROUP
Ġemail s
Se cond
Ġgra ph
ĠCo untry
Ġoccur s
sq li
Ġplace d
Ġlibr aries
Ġter min
Ġlay out
uff er
Ġremo ving
istic s
Ġcl one
ĊĠĠĠĠĠĠĠĠĠĠĠĠĠĠĠĠĠĠĠĠ ĠĠĠ
Ġaddition al
ites pace
Ġsuccess ful
Ġpredi ctions
ĠMO NTH
ĠDep artment
amel Case
Ġmaint ain
Ġlate st
etri eve
ĠLog istic
ĠTensor Flow
! ')
! ".
3 4
4 2
7 7
A s
A ctiv
L argest
L ondon
R ed
] ?
^ (
a it
e ded
f act
i ou
l an
o x
p es
s pa
s cale
} \.[
Ċ ĊĠĠ
Ġt en
re ction
Ġc la
Ġc apital
ing s
Ġo wn
ur s
Ġe le
is Prime
ol ume
Ġal phanumeric
Ġma jor
ig mo
ig hest
ter m
pe ople
Ġh ost
Ġde st
ĊĠĠĠĠĠĠĠĠĠĠĠĠ ĠĠ
res sed
ĠM ake
ĠM atrix
im g
(' ');
ER VAL
my String
pa ck
Ġsh ape
play er
Ġper fect
De c
include s
ĠV ALUES
Ġoper ators
Ġbo ol
Ġtitle s
Ġhand ling
Pro gram
pre v
Ġneed s
Ġrecurs ively
Ġparagraph s
pos it
Ġjum ped
vol ution
Ġoptim ization
Return s
Ġra ise
Ġencode d
Let ter
trans form
ae iou
igmo id
" };
$ %
- \
/ *
9 8
B N
M ar
N ot
O ption
P ool
W eb
Z a
d s
e ch
f c
f ruit
h as
h andle
n th
n ary
t ra
z ero
ĠĠ ĊĠĠ
Ġa ux
Ġa uthors
er m
he x
at er
at ur
Ġi p
Ġf in
Ġs end
de vice
li g
Ġm illion
Ġ' ')
ri angle
Ġ2 000
Ġ[ (
ma jor
Ġch oice
Ġres pon
Ġres pective
ed nes
"" ""
ĠD E
Ġlo ad
ĠO n
ĠB ook
ay ment
Ġcol lect
per ty
Ġrandom ly
text area
und ay
Ġgenerate s
ĠU sing
ĠU pdate
Ġvalid ation
Ġallow ing
Ġcondition s
du ces
Ġefficient ly
Ġrun s
Ġter nary
Ġcombin ation
78 90
ĠĊĠĠĠĠĠĠĠĠ ĠĠĊĠĠĠĠĠĠĠ
Ġspa m
ues day
limit er
Ġfore ach
Ġquest ion
ĠFinal ly
Ġorg an
) }
+ "
5 6
: ");
@ #
B ar
B uzz
N A
V alues
b irth
f ruits
g oogle
m t
n g
p rivate
s l
s end
w indow
w orks
Ġt r
or ch
Ġf lask
Ġin ner
Ġs rc
Ġp ol
Ġre a
Ġre co
Ġw r
Ġe poch
un e
Ġ' /
Ġ' <
Ġis Palindrome
Ġg lobal
Ġv ectors
put s
ad ow
() ">
Ġ- -
Ġne eded
op y
Ġme as
Ġresult ing
SE T
Ġinput String
Ġadd resses
Ġage s
Ġcol s
Ġcol ors
In valid
we ather
ĠE ach
ab s
red uce
Ġsh ortest
row n
Ġgenerate d
pro gram
ĠSt ates
25 6
Ġtest ing
ob by
ĠINT ERVAL
cre en
âĢĿ .
mut able
Ġrequi res
Ġimplement ation
Ġread s
ĠAn imal
ĠAn gular
Par agraph
rit er
ĠComp onent
yy yy
Ġchild ren
mar ks
(? :
Un ited
123456 789
Ġweight s
Ġmultipli ed
wi ki
ordin ates
race car
Ġinherit ance
ĠLogistic Regression
3 7
B inary
J ack
P re
\ "
i od
j ava
p unctuation
s oup
s igmoid
t le
u c
v o
v as
in fo
Ġa mong
Ġt mp
er os
or se
Ġp ow
Ġo ur
me d
Ġw ant
ame s
Ġd omain
mp erature
Ġ3 7
Ġst at
et a
ĠC all
Ġh um
)) ]
ist ory
ĠD ouble
Re move
Ġor dered
In stance
Ġle ap
Ġcur s
Ġcom ments
ĠE T
ab b
Ġsub set
Ġmy Array
Ġmy sql
Ġpar sed
ĠRe g
Ġk th
ĠU S
ĠĠĠĠĠĠĠĠ ĠĠ
Ġuse ful
Ġ25 5
Ġbinary Search
Ġform ula
Ġdivis ion
Ġdivis ors
123 45
Ġent ered
Ġenc oding
Ġremo ves
Ġeas y
Ġwrit ing
Ġinstru ctions
istr ation
itu de
ano i
ednes day
! ');
0 123456789
F ahrenheit
G et
I S
O dd
P age
P layer
S plit
S peed
V owels
] /
c le
g ame
i ke
l anguage
u ran
v is
w d
Ġc in
Ġf avorite
Ġin fin
Ġre lease
str ip
ur chase
Ġ" ",
Ġof ten
int s
Ġb it
Ġb log
an imal
an uary
Ġ' {"
es ar
te en
ĠĊĠĠĠ ĊĠĠĠ
ĠS h
Ġcon text
Ġ10 1
ĠT ype
Ġch r
Ġy ield
ĠN e
co urse
Ġprogram mer
Ġchar t
': '
Ġfind Max
Ġ8 5
ĠM odel
ĠB y
ĠB oolean
Ġset ting
we b
ap s
com m
Ġtemp late
ĠThe n
Ġsh ort
Ġpre vent
Ch ild
size of
Ġz eros
Ġcommon ly
âĶ ĢâĶĢâĶĢâĶĢâĶ
Ġpoint ers
Ġ{} ".
Ġreversed String
\. ,
bo ol
Ġposition s
ĠList Node
Date Time
Count er
Ġcorrect ly
`` `
Pa ir
gre es
Ġcollection s
fore ach
Ġim age
Ġaut om
ĠHash Set
Ġsq rt
Ġmult i
Cur rent
tup le
ĠValue Error
eh icle
problem s
Ġresour ces
urs day
Ġcurs or
" />
( \
) *
2 9
3 1
> =
A V
A PI
H ash
L ab
R o
U R
Y our
c ast
g iven
i pp
m ark
n p
o e
p le
p us
r ating
u ses
ĠĠ Ċ
Ġt we
Ġt rees
st ream
on s
on es
le ss
le ep
ar ah
de l
de tails
Ġto ggle
str ib
Ġan imal
Ġe st
lo ss
un ic
Ġm enu
Ġb lack
iv ed
Ġar ithmetic
Ġg reeting
ord ers
qu ick
Ġv olume
ĠS ales
om an
il ent
Ġcon verted
Ġsum s
Ġte am
Ġmax Value
Ġ// =
ĠM ark
ĠD es
(' .
ay es
one y
Con nection
Ġ/ =
up date
ab out
Ġcheck ing
Ġexp lo
Ġun ordered
Ġpre fix
ĠG ra
velo per
Ġbo und
Ġser vices
Ġwhere as
mb ed
Ġdep ending
Ġhand ler
Ġmo v
An agram
Class ifier
Ġen able
ĠAn d
Ġhigh er
Item s
ĠLo ad
ĠComp are
Ċĉĉ ĉ
Ġca pacity
Ġexecut ing
Ġim mutable
Ġsepar ator
Ġsco pe
Ġaccept s
Ser ver
Trans late
Ġnormali ze
divis ible
Cur rency
ĠPar ameters
Ġdetermin es
ĠAr mstrong
occur rences
Ġpack age
Ġsymb ols
Ac count
Over ride
Ġcla use
. _
4 8
6 6
: <
; :\
D ifference
D avid
E qual
I P
J SON
J OIN
T oday
\ -
^ <>
b re
b ooks
e ight
e vent
g b
m ode
p red
p ower
p ivot
in cre
or age
Ġc irc
um ference
de v
ur ses
Ġb irth
Ġd ue
iv ers
Ġ' );
Ġ3 00
et ing
ĠP er
ad a
ad th
Ġ4 4
end ar
(" /
Ġh ard
Ġy ellow
ĠA JAX
Ġas se
Ġmax Num
im ate
ĠH ow
Ġ7 8
Ġro ll
Ġcomp utes
Ġloop ing
oo se
Ġmy String
Ġtemp eratures
Ġ20 21
ĠRe place
ĠG CD
Ġconvert ing
Ġbre adth
cat ch
radi o
Ġser iali
cre t
Ġrepresent ed
An d
Ġread able
lin ked
Ġphone Number
sw itch
vers ion
Ġeas ily
Lo op
Ġoptim ize
User name
âķ ĳ
raw berry
multip ly
Ġconsist ing
Ġgu ide
Trans form
ern al
ĠAl gorithm
Ġvari ous
combin ed
Ad am
\., ;:\
^<> ()
" ?>
& *
' \
' ):
- .
A C
A Y
E AR
F req
H E
H arry
P ath
R etrieve
S canner
T uesday
V ariable
] ):
a w
f ar
f ill
f latten
h ref
i o
k y
o un
p let
s ilent
t s
t w
u ali
Ġ Q
ĠĠĠ ĊĠĠĠ
st er
or n
Ġc he
Ġs ave
Ġs creen
Ġre st
Ġo ct
ut f
Ġ" ".
Ġe ffect
Ġm ut
Ġd im
Ġd rop
Ġ} )
is alpha
ub ly
ĠP op
Ġ4 7
end ent
op er
Ġex it
ĠM erge
ĠD ec
ĠD ense
ĠD jango
Ġlo ve
ach er
array s
Ġ9 7
ces sing
Ġcomp il
') ]
are st
ser ies
red it
Ġstate s
cond ition
ĠĠĠĠĠĠĠĠ ĠĠĠ
Ġlongest Word
ĠG ET
tri angle
ĠSt art
ĠĊĉ Ċ
Ġbo ard
ext end
ific ial
Ġquick Sort
Pro duce
Ġmem ber
Ġcompare d
Ġsc anner
lin ks
cent er
Ġpop ular
Ġhel ps
Ġter m
FF FF
contain s
ĠĊĠĠĠĠĠĠĠĠ ĠĠ
Ġaut hentic
Read er
ĠHe re
Ġthread s
Ġdebug ging
view port
ĠEng ine
ele phant
WW WW
way s
ĠQu ick
Java Script
Us ers
separ ated
Ġdest ination
volution al
Pool ing
atur day
Ġwr ong
Ġepoch s
âĶĢâĶĢâĶĢâĶĢâĶ ĢâĶĢâĶĢâĶĢâĶ
" \
' m
' ][
. ";
9 7
@ [
C lient
F O
G CD
M ultip
M essage
T otal
T ODO
W ednesday
b ubble
d p
f alse
g h
s i
s cores
t oday
u lo
u les
} "
} .
} ".
re l
he ses
Ġc lean
Ġf it
Ġf un
Ġs chema
Ġp ub
Ġre ference
un sorted
ri day
Ġis Valid
Ġg ive
qu es
ĠS imple
ĠS ET
ĠP a
Ġpro v
ĠC ur
ĠC om
ĠC alculator
if ies
ĠJ ane
rom ise
ĠT ime
cri b
ĠA d
Ġwh y
++ ?
ĠĊ ĊĠĠĠĠĠĠĠ
head ing
ĠW ord
Ġ6 4
Ġnew s
ĠD isplay
Ġlo o
Ġro und
Ġget Max
data set
Ġby tes
Ġcomp ound
Ġdi strib
Ġset Age
Con v
ĠL ear
ĠE lement
Ġwe ather
Ġsub list
Ġtemp or
Ġ20 19
ile d
to ols
Ġdis k
"] +
sub str
ĠĠĠĠĠĠĠĠ Ġ
Ġselect ing
do c
do e
Ġext ernal
radi ent
Ġrepresent s
Ġent ry
Ġperform s
âĢĻ .
pre di
Ġreplace d
Ġman ner
fil ename
ĠĊĠĠĠĠĠĠĠĠĠĠĠĠ Ġ
Ġfib o
ĠEx ception
Ġcomput ing
Ġlay ers
ax is
ĠApp le
ormali ze
ĠData Frame
ĠUs age
ĠASC II
Per form
ĠRE ST
Good bye
Ġoption s
Su pp
Vector izer
Ġadvant ages
Linked List
Ġput s
Ġpseudo code
Ġbehavi or
efficient s
fact ors
Ġmeas ure
Ġinfin ite
AV ING
) [
- |
A ss
A uthor
D igits
F ix
M O
O RL
P y
S m
S unday
` .
b c
b all
c in
g ers
k it
s c
s peed
u ch
v in
w rit
x sl
} -\
Ċ ĊĠĠĠĠĠ
Ġ rom
in a
in omial
Ġa void
Ġa round
or p
ĊĠĠĠ ĊĠĠĠ
Ġf ew
Ġin c
Ġin dent
Ġs at
Ġs ur
de st
li a
al ert
se ct
Ġw or
Ġm iles
Ġb its
Ġ{ {
Ġar t
Ġis s
Ġ[ {'
Ġg reet
Ġg rid
Ġ3 9
ĠS cience
ĠS tep
Ġst op
Ġ5 6
ĠC lass
id er
pe dia
ĠA I
Ġj ust
Ġde grees
Ġmax Length
ĠĊ Ċĉ
ĠM ap
ĠM ultip
im ation
The re
(' ').
Ġor ange
ĠB ig
Ġadd Two
teg ers
Ġcomp o
Ġcomp letion
Con sole
Ġtak ing
up s
Num s
fe male
cho ol
LL O
Ġta il
iz ing
St orage
Ġiter ations
ĠY our
ĠY EAR
Ġfil led
mb ly
Ġpla ces
]+ $
Char s
Max imum
ategor ical
Ġpower ful
gre SQL
ac count
Ġsubarray s
Ġheap ify
ĠOr der
XXXX XXXX
ĠMe thod
Ġmultipli es
record s
Ġstar s
Ġol le
ĠPost greSQL
Ġag ain
<< "
Ġgen re
Ġsi mp
ĠLinear Regression
tel lig
Ġproced ure
Event Listener
$% ^
ĠDE C
Ġreco gn
ĠAnd roid
( ',
) ?
0 6
: -
D ist
E ND
F ill
F latten
G PT
I s
M o
O M
S pec
S ales
S UB
U t
b ird
d rop
i ct
k ens
m i
m ation
n ull
o gram
r ing
u ess
Ġ â
Ġ ];
Ġt orch
st ore
Ġc lo
Ġc sv
Ġs alaries
it or
Ġp ot
Ġp lot
str pt
ge d
Ġ" *
Ġco ordinates
ch ron
is digit
Ġ3 000
Ġal loc
ĠP re
ĠP OST
Ġpro duces
Ġcon volutional
() "
Ġ4 1
Ġ4 3
ĠC opy
id ent
pe ctiv
Ġh our
Ġh idden
ĠA t
Ġde let
con vert
Ġ8 9
Ġon es
so me
In fo
In tegers
per centage
Ġsh ift
ĠRe ad
ĠRe move
ĠU N
Ġper imeter
Ġper iod
ĠG PT
20 21
Ġequal s
IM E
ref ix
Ġperform ing
0000 00
Ġbutton s
pri l
Ġrepe ating
Ġdirect ly
grade s
Th ursday
Ġsolution s
Ġsepar ated
Ġcontin uous
Ġrel ated
Ġfrequent ly
Ġparent heses
Ġcompar ing
]| [
Ġfix ed
pair s
ĠTree Node
}` );
Pos itive
So ftware
ĠConstruct or
nolog y
Activ ity
Lab el
mbed ding
bre ak
Sm allest
strpt ime
! ",
( *
0 4
6 3
: '
B C
B e
F izz
G B
J ames
M ay
M erge
M ove
M achine
O ccur
P op
S ome
S aturday
U I
V is
[ ^
b ottom
c ab
c ard
c ategorical
g en
g reater
m erge
t ual
Ġre cur
ur ther
Ġ" /
Ġb en
Ġar ch
Ġand roid
Ġ' +
ri al
Ġg pa
Ġst yles
Ġprint ed
ĠP hone
pe ech
Ġres pectiv
cript ion
Ġse ction
++ ,
Ġsum Array
im age
ĠO OP
Ġro le
mo vie
Ġ9 9
input s
my Array
Ġcontain er
ser ted
atic ally
Ġmy sqli
add EventListener
Ġapp le
Ġid x
Ġuse State
Ġlongest String
De lete
ĠG PA
([ "
val s
Ġdouble d
Ex p
Comp uter
Ġiter able
Ġiter ating
node s
ĠK ey
temp late
Pro cess
Ġsol ving
Ġcomm unic
mid dle
page s
Ġmatch ing
He ad
He ader
Ġswap s
Ġren ders
Ġrepe at
Ġdefin es
Ġassign ed
Ġfile s
Ġcat s
with out
Ġcontin ues
second s
Ġsuper vised
mar ize
ighb ors
Ġflatten ed
Ġdecla re
ee ks
Ġnormali zed
Ġpredi ction
ĠIS BN
token ize
Ne gative
Ġut ili
IG N
ĠRes ult
@# $%^
ivers ity
Ġprov iding
ORL D
Ġrespectiv ely
( {"
) ])
0 7
5 4
: ]:
> >
? "
@ \
A lex
C SS
C alculator
F oo
F requent
F riday
K EY
O OP
S tep
S arah
U E
U nique
V ER
[ @
b ot
c ss
c ircle
d umps
f ession
g it
h o
h our
j ob
l ong
n on
s im
} {
Ġ Given
Ġt w
Ġt urn
Ġt ab
re al
ĊĠĠĠĠ ĠĠĊĠĠĠ
Ġf ra
Ġin verse
Ġin correct
Ġin ventory
Ġs cale
Ġp ad
Ġre ach
Ġre arrange
Ġto ols
ge les
Ġ" #
Ġ" ")
ent iment
Ġe mp
Ġm uch
Ġco ins
Ġd en
Ġfor ward
Ġ' @
ss ors
Ġ[ {"
Ġg ood
Ġ( -
el vin
Ġst reet
Ġal tern
om s
av ed
() }
for ni
Ġ- --------
Ġh al
Ġh ide
ĠN a
as cending
ĠI s
Ġprogram s
Ġas yn
con cat
ĠW ORLD
Ġ6 7
ist s
ist ogram
dom ain
ĠD iv
ress ure
ĠO ther
Ġ9 5
ali forni
Ġcur l
ĠL ondon
') [
mat ches
fe rences
Ġout er
Ġout li
Ġend s
ĠRe curs
Ġso cket
ĠIn itiali
ĠU I
cur l
ni ques
Ġdiv iding
result s
Ġover flow
ens ive
sh adow
En g
Ġdec re
ci ssors
Ġformat ted
Ġdes crib
ĠPrint s
Text Field
ĠAn geles
comp onent
Max Pooling
Ġupdate s
ĠComp ile
fo x
Ġshow s
Ġdivide d
Ġtech niques
create Element
ÂłĠ Âł
Ġassoci ative
Ġ123 4
Al gorithm
ALU E
sent iment
Fe male
Ġprincip al
Ġsec ure
Ġswapp ed
capitali ze
Ġrea ched
ky o
Ġsat is
Ġpot ential
Ġben ef
@#$%^ &*
aliforni a
" #
( ",
( ['
, }
4 7
5 1
6 8
> $
D F
H ttp
M A
M P
M ark
N C
O ri
R ate
R ange
W indow
e valuate
g ate
g rid
i lo
i mag
k u
n ess
o g
s y
s ign
} ')
Ċ ÂłÂł
Ġ âķĳ
ĠĠ ĊĠĠĊĠĠĠ
in es
Ġt ren
st atic
en e
en use
Ġc redit
Ġin order
Ġin serted
ra int
Ġo pt
me ters
Ġ" %
ro le
ro up
Ġw ide
Ġe val
Ġe ffic
lo ur
Ġd ot
la re
Ġ[ ('
def ine
Ġ} }</
is upper
ĠP rime
Ġma gn
id ity
=" "
ot enuse
ĠF ound
Ġus ually
get Date
ĠI F
Ġde viation
ĊĠĠĠĠĠĠĠĠĠĠĠĠ ĠĠĠĠĠĠĠĠĠĠĠĠĠĠĠĠ
ta il
Ġex pected
ay out
Ġro ute
In dia
Ġ$ _
his m
Ġcomp ares
append Child
') );
fe ature
'] ))
Ċĉ Ċ
pro ject
Ġexpression s
Ġli ght
par k
Ġspec ify
url s
Ġfo od
ci pher
cal c
ST M
IM AL
Data base
Row s
-------- --------
ĠCon nect
Ġen co
Ġdist ances
yp otenuse
Ġblock s
Ġnet works
Ġvis uali
ĠComp ute
Ġparse Int
inc lusive
Ġheading s
Ġpost s
Student s
ag on
Ġinst ances
multip lication
Ġexception s
Res ponse
Day s
\/ \/
=$ (
sent ences
tup les
Form ulate
zer os
Ġol dest
Ġneighb ors
$/ ;
ym orp
ĠCont ent
Ġrepla cing
Ġscra per
Ġcategor ies
Ġsear ched
spec ial
Ġcirc umference
Ġasse mbly
ĠLear ning
Ġolle H
ĠDEC IMAL
ymorp hism
( __
) "
+ ----+--------
= ${
> "
C at
C or
D igit
D iff
F ore
L ongest
L os
R un
S ample
T erm
U S
V ALUE
W hi
\ ":
a lic
a uth
c an
c lf
f ir
h ip
h ighest
i ency
o pping
r d
r at
r ont
s ine
s ix
v els
Ġa ster
re mainder
le ar
Ġi gn
Ġf ree
Ġre m
li de
me di
ur tle
ate ly
Ġ" -
lo y
ĊĠ ĊĠĠ
ame ter
Ġd uring
an an
Ġ' #
qu er
ĠS o
ĠS tr
Ġal ways
om in
ĠP romise
Ġpro ps
Ġpro tect
() ]
Ġ10 000
ma zing
ot es
ir tual
pe ar
Ġh ome
Ġy oun
Ġus age
ĠA rial
Ġde limiter
Ġmax Count
cc u
Ġ8 7
Ġon Change
Ġex change
ĠM essage
ĠM achine
app y
Ġcount ing
ĠH ome
Re curs
ĠB ST
ĠB uild
Ġro d
ph rase
Ġrandom String
pa ces
ĠL anguage
we ek
and s
and ler
Ġend ing
ĠThe se
ĠIn cre
of f
Ġremove Duplicates
cho ices
pon ent
ĠV is
Ġselect s
sh uffle
Ġcase s
AB A
Ġab ility
To String
Ġent ire
An imal
Of H
Ġmessage s
\. )+
Ġinter act
Ġproper ly
Ġsing ly
trib ute
sw ith
He re
He ight
Ġupdate d
Line ar
aut o
fo oter
object s
Field s
ĠCount Vectorizer
inte rest
Or ders
Charact ers
Ġgener ator
Ġgener ally
Ġsp i
[\ ]\
YY YY
Min imum
ĠCh ar
Product s
Te mperature
conn ector
Ġident ical
ĠIN NER
Mar ks
program ming
Instance State
incre asing
'][ '
Supp ose
tellig ence
aved InstanceState
Ġhal ves
ilo meters
Ġeffic iency
Whi ch
Ġaster is
[\]\ \.,;:\
" ):
* /
0 3
5 7
6 7
A ug
C S
D is
D ouble
F ERE
F ull
I f
J ill
N S
N Y
O ct
P ost
S p
S am
[ (
` );
b lock
b tn
c lient
f if
f actor
f older
g ree
h over
h idden
m ory
m eric
n s
n ine
o graph
p ol
q l
r ary
t ot
t ask
u ss
x label
y label
| |
} >
} }
Ġ ^
re m
st op
Ġc y
Ġin valid
Ġs uggest
de code
Ġp ract
Ġp lan
Ġre us
Ġre cent
Ġre view
Ġto ol
str ate
Ġan gle
ur ation
al low
ge s
Ġe arn
Ġm oney
th an
Ġd ol
iv ity
ĊĠĠĠĠĠĠĠĠ ĠĠĊĠĠĠĠĠĠĠ
Ġis bn
qu ation
Ġv owel
ĠS V
Ġlist en
Ġprint Fibonacci
Ġal location
ad ig
Ġran k
() -
Ġ4 8
=" ")
for ce
ĠF ran
ter ms
cri min
Ġj ohn
Ġse gment
ĠI d
con struct
Ġit alic
ĠW elcome
mple x
Ġlo c
Re gex
(' -
ay ments
ore m
In ter
input String
Ġby te
Ġcur rency
ft ime
Ġdo gs
Ġsort Array
âĢ ľ
ĠE xtract
Ġwe re
Ġsub problems
Ġmy Table
Array List
ĠR un
ĠR ed
>< ?
Ġreverse Array
'] .
br uary
Ġhead ers
ant i
ĠSt ate
ens ity
Ġroot s
Ġoper ating
sh are
Ġext ra
time stamp
Ġdec ode
ci se
ext ract
Ġfil ename
ĠDo g
abc de
Ġimplement ed
Pro perty
be led
Ġmo ves
An swer
Ġreversed Str
Ġcondition al
ous ly
ĠPrint ing
Char Array
exp r
Date Format
Ġcommand s
Ġdataset s
Ġnull ptr
Ġhash map
Pa ul
Ġpe ek
Do g
ĠApp end
Ġencry ption
ĠWeb page
lish er
check box
Ġoptim ized
55 5
Ġund ers
Def ault
inte gers
Ser ies
multip les
-]+ \.[
-]+ @[
(? =
sm all
Ġsign ific
rincip al
Ġrepeated ly
Ġpri mary
square d
Ġact ive
Ġident ifier
ĠMO V
Ġver b
ĠBinary Search
ĠRE FERE
combin ations
dist inct
Ġsimilar ity
orm al
Ġdeclar ing
ĠCa esar
Ġsuccessful ly
Ġhum an
HE LLO
oper ator
ĠEngine er
NC ES
Ġopt imal
anan as
OfH anoi
crimin ant
ĠREFERE NCES
. +
3 8
A A
C C
C all
C ustomers
C elsius
F T
J S
J anuary
N B
O W
S quare
U RD
b b
b lack
b rown
c l
d raw
f fe
f ull
f inal
f lag
g t
g cd
g reeting
g enerator
h ash
h ook
l ug
m ited
m issing
o ber
p ng
s ame
u id
Ġ ))
in come
in ventory
Ġc ut
Ġc riter
le vant
Ġf lat
Ġin s
um p
Ġs cience
Ġs leep
it ter
Ġp lay
Ġre ject
Ġre versing
Ġo ccupation
Ġw elcome
un ded
Ġco urses
string ify
la p
Ġis Empty
Ġ[ ...
te in
ite ct
ce ll
qu ences
Ġv irtual
Ġl cs
ĠS ample
et work
ĠP urchase
il ities
ĠC URL
ĠJ S
ult inomial
ĠT e
__ )
Ġne ur
ĠA uthor
Ġse e
Ġse ver
Ġsum Of
Ġsum mation
cc c
LE FT
Ġex act
Ġnew Array
Ġnew Arr
ĠM anager
Hello World
ĠO R
ĠB utton
ĠB ank
]) ,
Ġ9 8
per mutation
log o
Ġla beled
Ġ/ ><
ab lish
acc ess
Ġsub str
Ġcalculate d
Num eric
Ġpa st
Ġdis count
Des cription
ĠR oman
Ġper centage
De p
Ch ina
ry pted
pro cessing
sh ift
sh tein
Ġiter ative
ĠY es
cal culator
Ġfil ters
ob b
Ġ{} '.
âĢĿ :
\. \
Ġass ert
Ġtri plet
Ġfe ed
lat form
comp are
sw ap
ategor ize
ĠURL s
Ġsk ip
pri ority
ĠNum Py
no input
Ġim ages
Ġoptim izer
nav bar
ĠHe ap
Ġstor age
+-------- ---
Ġsim ulate
param s
Ġpri ority
Ġpie ces
Ġact ual
Ġold er
ĲâķĲâķ ĲâķĲâķ
Ġax is
Ġmanage ment
Point s
Ġpy ramid
Ġsql ite
Ġindic ating
Ġswapp ing
bl ank
ĠCol or
dep endent
Second s
spa m
uc lide
web site
Ġmut able
Ġtempor ary
Ass ign
writ ten
Ġsur face
Ġart ificial
fir m
(?= .*
URD ATE
uclide an
! @#$%^&*
# .
% ;">
( &
. ')
0 8
0 9
3 9
4 9
7 2
: .
: \/\/
B o
C ategorize
D Array
E valuate
F a
F ran
F ib
F ile
G e
M ango
P attern
P eter
S imple
T ABLE
] <
b order
b oolean
c is
c us
c ked
c ba
e q
e ver
e ople
g g
g ress
g uess
h ome
i ch
m enu
m ouse
p refix
v owel
z es
} '.
ĉ ĉ
Ġ ~
Ġ ],
in ux
Ġt ill
st ar
er ative
ĊĠĠĠ ĊĠĠ
Ġc um
Ġc ra
Ġi de
Ġf i
Ġin vo
Ġs a
de lete
Ġp latform
Ġre posit
ra st
me thod
me mber
str ftime
ur o
al phanumeric
se vent
Ġb anana
th ir
Ġco efficients
Ġd raw
Ġ' _
Ġis Anagram
ce l
Ġl cm
is bn
is Empty
ĠS p
Ġal t
Ġ5 4
ĠP y
Ġma pping
il ing
pt ure
ĠC ase
ĠC our
ĠJ ob
gra pes
ĠT rans
ĠT riangle
ck ing
Ġ- ------
get able
Ġwh itespace
ĠI m
Ġde ad
Ġas cii
con nection
Ġmax Val
ĊĠĠĠĠĠĠĠĠĠĠĠĠ ĊĠĠĠ
Ġqu ad
ou gh
Ġon line
Ġ6 3
Ġnew String
ĠM IN
ĠM ultinomial
ĠD OM
]) );
mo v
In terest
my Dict
Ġinteg r
Ġcomp ressed
pa per
Ġset ters
Name s
][ "
ang ing
Ġ__ __
Ġcalculate Area
Ġmin max
Ġpar am
Ġpar adig
to Lo
to CharArray
sub array
ĠU SA
ĠG o
ĠG ender
ĠV ehicle
Comp any
uplic ated
St ream
Ġiter tools
En c
cat ter
ĠY ear
ci kit
Ġpassword s
RE IGN
ob ile
wh itespace
Ġsol ved
Sum marize
Ġenc aps
Ġcall ing
OU R
Ġsquare d
Ġreplace ment
Ġtrans fer
ĠSe cond
load ing
Ġcent ered
uff man
Lo gin
ĠData base
Di ctionary
post s
Ġanaly ze
ites paces
Ġdynam ically
Ġbox es
Ġsy s
>{ {
ier arch
month s
xx xx
uzz le
Ġkn ow
Ġvari ety
occur rence
ordin ate
Ġquest ions
encode d
Ġinstru ction
Can ada
Ġprincip le
roll er
ĠTh read
Ġadvant age
Ġrece ive
Ġtk inter
Ġshare d
repe ating
wiki pedia
Ġstat istics
Ġbound ary
Ġenable s
ulo us
ĠPa ssword
Ġindent ation
Ġwor st
ĠaddTwo Numbers
Ġarch itect
Ġtw ice
Ġasyn chron
Ġoutli ers
$ (
( ...
( \.[
) ")
+ /
. __
/ %
3 00
> ;
A ust
A pril
B B
B alance
D ave
E m
F S
F requency
G enerator
G eeks
G roup
H AVING
I mp
I FO
M IN
M enu
O ut
P UT
S w
T op
T riangle
] //
a ctions
b ra
d l
d uplicate
f requencies
h ours
h istory
p resent
p ressure
s parse
t ract
u ped
v let
w elcome
} [
Ġ ul
er b
en i
en v
en ded
or ies
or ning
Ġc URL
Ġthe me
Ġin come
ar ing
Ġs heet
Ġs ession
Ġp unctu
Ġre use
Ġre direct
Ġre levant
ra lia
al num
al loc
se ven
Ġ" !
Ġ" </
ro W
ent y
un tered
Ġb ro
Ġb ank
Ġd on
Ġd jango
ul us
ul ated
Ġ[ {
ch art
Ġv ery
Ġv ec
ran ch
ĠS entiment
Ġ5 1
num eric
ĠP attern
Ġpro m
Ġcon cise
xt y
ĠC al
ind ices
rom ic
lic it
(" {
Ġh ierarch
ĠA X
ĠA fter
Ġqu er
Ġclass Name
Ġresult def
cc uracy
app lication
length s
(' \
ĠO ne
Ġcan vas
ĠB o
mo vies
Ġ% .
my db
Ġle ak
per imeter
Ġdi rection
ĠL inux
log in
ĠĊĠ ĊĠ
ex ec
ĠE ND
ĠE valuate
ser vice
am b
com ment
com mit
Ġmin im
Ġr ather
to ggle
ĠIn st
Ġ: :
cur ity
'] :
const raint
tri m
ant s
min utes
Ex ecute
Comp at
Ġext end
Ġbreak ing
Ġdatabase s
alind romic
Ġreg ister
** **
11 1
Ġdes cribe
json String
Ġimplement ing
ĠX OR
Ġtop ics
Ġpur ple
ĠAn y
Ġtrain ed
Ġinclude d
sp ort
iss ion
"} '
output s
OP T
Ġ(" %
Ġim medi
View ById
Ġbegin s
We ight
ynam ic
Ġsubt raction
ĠHe ading
Ġrel ations
Ġrel ational
Ġdesign ed
ok ie
Al phabet
ĠDe lete
Ġfore cast
divis or
Ġcipher text
Ġconnect ed
Div is
querySelector All
reg ister
Ġoff ers
Ġretrie val
Ġretrie ving
Fe bruary
Ġbig gest
Sh ow
(/ \
Ġref ers
Ġbracket s
ĠSer ies
76 5
Ġaw k
ĠInsert ion
ĠCont act
ys ics
ĠExp ression
DI R
Que ue
ĠMo vies
ĠDi ctionary
^( ([
handle Change
vis ited
comm and
Ro ot
ipp ed
^<>() \
Ġcompil er
Ġauthentic ation
Ġrom an
Ġiss ue
ident ical
ĠInitiali zing
component s
sy mb
Ġenco untered
Cor rect
Ġign ore
ĠStr uct
Ġprotect ed
\.)+ [
Aug ust
Ġcriter ia
lap se
ĠCURL OPT
ĠBank Account
obb ies
Aust ralia
% '
( _
. ,
. /
5 00
> #
> '
A M
A S
A DD
C M
C a
C al
C alifornia
C URDATE
D rop
F ive
H ex
H andler
I NT
J une
L ear
L AB
N on
O wn
Q UE
R ING
T H
] ];
_ (
a j
c lasses
f ort
f ish
g ument
g reet
h r
i q
l ang
n one
n log
s chema
s cissors
u sed
w ner
w here
w args
in ety
ĠĠĠĠ ĊĠĠĠĠĠĠĠĠĠĠĠ
Ġa mazing
or ing
or ge
or th
or iz
on tal
Ġc ss
le g
Ġin dependent
Ġp res
Ġp layers
Ġp ayment
Ġo pp
me trics
se ed
ut ed
ut ure
ent ed
Ġ< ?
Ġw ait
Ġm anager
Ġb in
Ġco lour
Ġd d
Ġd er
Ġnum List
Ġth us
ce mber
def ault
ĠS he
ith ub
Ġst ill
Ġal pha
Ġ5 55
et ic
et ree
num er
ĠP RO
Ġpro to
il ter
ic ag
ic ograph
Ġcode s
() ))
ĠC at
id s
ĠJ une
for med
ĠT otal
ĠT ower
(" #
ĠF O
Ġh ouse
Ġne arest
get Month
as cal
Ġse cret
ed ian
ĠI mport
Ġon Click
ĠW hat
ĠĊĠĠ Ċ
ĠM ary
app les
ĠD AY
Re c
Re cord
Ġ7 9
ĠB ayes
so urce
my string
ne sted
pa ss
Con nect
ure d
ĠL e
Ġtak en
âĢ ĺ
Ġoutput String
ex ponent
Ġsub class
Ġsub sets
und red
Ġcheck sum
Ġout side
---- -|
ĠThe re
Ġapp les
Co me
Ġindex es
ĠRe gular
Ġk ilometers
Ġat tr
ĠIn ter
po sed
'] ]
Ġ12 0
Ċĉ ĠĠĠ
place holder
Ġ25 6
Ġcont rast
Ġleft Index
Ġover loading
ular ity
]] #
AT LAB
yn c
Ġreg istration
read ing
Ġdep end
ĠK eras
Ġinsert ing
du ction
Ġinter active
Ġinter sect
Ġac ross
sp lice
sw ers
Ġdoes n
Ġlog ical
Int ensity
])) ]
Ġcombin es
14 15
ful ly
99 99
Ġcalcul ation
Ġcalcul ations
ĠEn d
Ġassign s
Ġpass ing
Ġpass wd
Ġpost fix
Key s
car rot
std lib
dis count
host name
Ġrot ation
Ġimpro ved
EG IN
Ġinvol ve
Ġcar s
peri od
ilar ity
Le ft
Analy zer
anagram s
Ġacces sing
atch er
Ġsymb ol
su per
Ġhold s
43 21
Pos ition
mod ule
Ġaw ait
Ġdeclar ation
Ġrepla ces
("* ",
Ġinterpre ter
Que st
resh old
fetch all
Ġsear ches
Ġclust ering
dep artment
has Own
Ġrespon s
eta ils
uran t
ĠNe ural
ubly LinkedList
Ġsimp ler
Ut il
Ġ--------- -
Ġbenef its
Ġvisuali zation
agon al
ĠFran cis
ĠPurchase s
Ġsever al
Ġreposit ory
ĠCour se
Ġparadig m
toLo cale
Ġpunctu ations
ĠSentiment Intensity
Lear n
oriz ontal
icag o
hasOwn Property
ĠFrancis co
ĠSentimentIntensity Analyzer
" <
) ];
+ $
+ ',
8 6
8 9
: (
= >
> ';
@ "]+
A E
A G
B lue
B EGIN
C lose
D U
D ates
D isplay
L O
M arch
O per
O pen
O ccupation
P ane
R A
T ag
U r
V ar
W h
] =
c pp
c all
d x
f lex
h ow
h ide
h obby
i eve
i loc
k n
m ul
m ic
m ult
m ore
o pt
s a
s yn
t m
t act
y ellow
Ã Ĺ
in order
ĠĠĠĠ ĊĠĠĠĠĠĠĠ
Ġa ch
Ġa pi
at ives
Ġ= ",
Ġc re
Ġc amelCase
Ġc lear
Ġf ul
Ġf if
Ġs peech
Ġp uzzle
Ġo wner
li br
Ġto o
str len
Ġan imation
un its
an ies
an swer
ri c
Ġth ous
ul y
Ġg radient
is hed
ĠĊĠĠĠ ĊĠĠĠĠĠĠĠ
ĠS cal
ub es
ĠP lease
ĠP eople
Ġpro file
ad min
Ġ4 9
ĠC an
ĠC ell
gra pe
ĠT OP
ot a
(" ");
ck er
Ġh ypotenuse
Ġch anging
Ġres olve
ĠA ss
ĠA ll
ĠN ot
Ġde vice
Ġde letion
Ġde posit
00 1
ĊĠĠĠĠĠĠĠĠĠĠĠĠ ĊĠĠĠĠĠĠĠĠĠĠĠ
ta gs
ĠĊ ĊĠ
Ġ8 00
ĠW h
ĠW ith
key word
im er
Ġlo gs
Ġcal endar
ĠH ttp
Re arrange
art icle
Ġget Random
data sets
Ġle x
Ġle ad
Ġcomp anies
Con tain
sum er
ex pected
ĠE X
Ġcheck box
mat rices
Ġr gb
sub sequence
ĠIn dex
Ġexp licit
label s
Ġun ion
Ġpre de
our ce
ĠG oogle
Ġ15 0
ĠV ariable
Ġselect ed
Ġover all
Ġli s
par sed
par ameter
Ġstructure d
iz es
Ġfo oter
AT ABA
Ma in
Element Tree
cal er
Se p
ĠCo mplex
Ġtra dition
Ġtra versing
123 4
Ġoccur red
Ġfloat s
Ġfloat ing
ĠList s
year s
App lication
Ġsc ient
Par ser
type of
ĠĊĠĠĠĠĠĠĠĠĠĠĠĠ ĠĠ
ĠĊĠĠĠĠĠĠĠĠĠĠĠĠ ĠĠĊĠĠĠĠĠĠĠĠĠĠĠ
Ġfib List
Ġlog o
ĠLo cal
Ġcomput ers
Ġcomput ation
ension s
ĠTable A
fa ces
ask ell
Ġremo te
cket s
Ġpredict ing
Ġca use
ĠApp Compat
Ġgro uped
ĠĠĠĠĠĠĠĠĠĠĠĠĠĠĠĠ ĠĠĠĠĠĠĠĠĠĠĠĠĠĠĠĠ
late st
rea ded
Col lection
Ġjoin ed
car s
Ġurl s
ĠHe ader
Ġrel ative
Ġinst anti
Ġadj ust
Ġconcaten ation
Ġpurchase s
Ġmult ith
background Color
ĠRandom Fore
123456 7890
ÂłĠÂłĠ ÂłĠÂłĠ
ĠPar se
Div ision
Me an
ĠSer ver
Ġunderstand ing
Ġmanip ulate
Ġevalu ates
capitali zed
NA ME
java script
Ġrelease d
Ġautom atically
ĠDes ign
ĠHow ever
Ġdim ensional
ĠSimple DateFormat
predi ction
Ġrecogn ition
Vis it
[@ ]}
sim ilarity
Ġfra gment
ĠNa ive
ĊÂłÂł Âł
Recurs ion
Ġspi ral
Oct ober
tot ype
ĠSV C
Ġneur ons
(?=.* [
ĠIm age
ĠMultinomial NB
Em ily
Ġquer ies
Ġrelations hip
^<>()\ [\]\\.,;:\
ĠFO REIGN
kn own
libr ary
ATABA SE
Ġtradition al
ĠRandomFore st
" ]["
% .
/ \
9 6
? \
B ye
C l
E xt
F ound
G re
G reeting
H R
H TTP
I V
L en
N IST
S te
S ql
T ax
Z ero
] ][
` ,
` ;
a ded
b uffer
c er
d ot
d ating
e py
e ep
g mail
i sed
i Phone
j e
k wargs
n inety
p ur
w rap
y es
} /
ĠĠ ĊĠĠĠĠĠĠ
Ġt bl
en ate
at in
or ie
on click
on itor
Ġc art
Ġc lick
ĊĠĠĠĠ ĠĊĠĠĠ
Ġf uture
Ġs lug
de g
it ing
it ial
Ġp et
Ġp ip
Ġre q
Ġre sta
Ġo p
Ġto kens
al ing
al len
al og
se cret
Ġ" ");
ro oms
ĊĠ ĊĠĠĠĠĠĠĠĠĠĠĠ
un ted
Ġb l
Ġb def
Ġ{ %
Ġco me
Ġco sine
Ġd y
Ġd ic
Ġd uplicated
string Length
Ġar range
ĊĠĠĠĠĠĠĠĠ ĠĊĠĠĠĠĠĠĠ
Ġ' :
la pping
Ġth reshold
Ġ( +
ce ed
Ġv ert
is lower
is alnum
ĠS park
Ġst ream
Ġprint Array
et ween
ĠP alindrome
Ġma ze
pp ed
ic les
Ġ4 6
id get
=" _
ult ane
od b
ĠT w
ĠT ake
ma les
(" <
ĠF requency
ĠF urther
Ġh is
Ġh obby
)) {
ĠA c
ĠA rea
ĠA bout
get Time
Ġwh itespaces
Ġse q
Ġse ven
Ġse quential
ed u
ren der
Ġde ck
Ġde gree
Ġchar Map
Ġfol der
con verted
Ġmax len
ta ch
head ers
us ic
Ġ8 6
Ġon to
Ġex am
Ġ6 00
ist ical
ĠM ATLAB
ĠD ATABASE
ĠH askell
(' #
Ġinput Array
Ġadd Numbers
out comes
") ,
") );
Ġ% }
Ġ9 1
my dict
per ties
Ġrandom Number
Ġdi e
ĠL u
ĠL ib
ĠL STM
ĠE uclidean
Ġsub ject
und le
Ġtext box
Ġmy string
com bine
Ġ20 18
set State
Ġr ules
Ġpar ser
Ġsh allow
Ġid s
Ġindex ing
ĠR o
Ġexp ensive
Ġweb hook
>< !
Ġcharacter istics
Ch erry
pro perty
pro fession
Ġeven ing
ĠSt andard
par agraph
time s
St rawberry
Ġiter ator
che Node
Ġlargest Number
ext raction
Ġvalid ating
Ġequal ity
start swith
RE NT
To Dec
ref ore
Ġjson ify
Ġjson Obj
Ġdelete Node
Ġmerge Sort
Ġextract s
ĠAPI s
exp ress
Ġsyn tact
reverse String
App end
format ted
He ap
[: ,
[: -
Ġaccess ible
Ġvis its
Ġdevelop ing
"} ]
ove mber
ĠNum bers
cor pus
Do cument
Ġ80 80
Ġca uses
Ġca pture
Lo g
Ġpath s
Ġproces sed
phone Number
insert ion
Ġrequire ments
ĠXML Http
Ġmerged Array
lar s
Ġsim ultane
Com bine
Ġgener ating
ĠCh ange
Te am
ee e
ern el
Ġaccording ly
Phone Number
Ġlocal Storage
Ġdetermin ed
Ġver ify
Ġlook ups
}` ;
Ġbig ger
____ ____
Ġframe work
abcdefghijklmnopqrstuvwxyz ABCDEFGHIJKLMNOPQRSTUVWXYZ
Ġ'* ':
Ġperm ute
fig ure
direct ory
equal s
Ġ'- ':
abcabc bb
Ġinterpre ted
ĠExp ress
Ġhyper link
Ġobtain ed
Ġclust er
Ġtermin ate
spa ces
Ġorgan ized
Ġstat istical
abb cc
Hash Map
UR RENT
del ta
Ġanimal s
ĠMark eting
ĠGra ph
eight y
ĠPer l
flatten ed
tw enty
Ġoct al
ĠPop ulation
bubble Sort
si xty
Ġdistrib ution
Ġinc lusive
Ġstop words
ĠMultip ly
Ġcompo sed
Spec ial
Pop ulation
Ġ"/ "
Ġ'+ ':
ĠOther wise
Ori ented
Ġtren ding
\": \"
ĠIncre ment
fif ty
meric a
Ġsignific ant
Ġcra sh
sevent y
thir ty
Ġ'_ '
Ġdead line
Ġarchitect ure
aj ax
fort y
Ġfif th
Ġlex icograph
ĠEX IST
ĠComplex Number
ĠXMLHttp Request
Ġsimultane ously
" /
" ?
" [
' #
( ':
( ([
) *)
+ \
, '
4 1
8 3
8 7
> .
> ");
B ST
B uffer
B undle
C B
C ategory
C oding
E D
E le
F loat
G PA
G reater
H EN
I terate
L T
L ayout
L IFO
M ode
M ongo
N ext
N OW
P ress
R ectangle
S ame
T F
Y OUR
] ],
a list
c ities
d ical
e quation
f ri
g i
i ous
k dir
m anager
n t
o y
p df
p unct
r gb
s k
s ure
s ites
t ren
y our
z one
| --------
} |
Â °
Ġ Â
Ġ LE
Ġ Query
ĠĠĠĠ ĠĊĠĠĠ
st or
Ġin v
Ġin telligence
Ġn n
Ġs chool
de cor
de viation
de limiter
ra g
li es
li ke
Ġto UpperCase
ur ces
al k
se ats
ut or
Ġ" :
Ġ" @
Ġ" ${
ro ck
Ġe b
lo re
un ny
Ġm m
Ġm obile
Ġb ranch
Ġ{ },
th ird
Ġd ir
Ġnum Array
an n
an ish
Ġ' ;
es ome
la b
ri ble
Ġg ate
ch or
te acher
Ġ( *
Ġ( {
ce stor
ub lished
ĠP ot
ĠP DF
ver b
() ];
ĠC l
ĠC reating
ĠC ipher
ĠJ anuary
Ġ# {
Ġwith draw
Ġ== '
ĠT wo
ĠT uring
ig ure
ĠA verage
ĠA lice
Ġse quences
++ ];
ĠI ter
ĠI mplement
Ġte ach
": ".
con secutive
Ġmax im
Ġbe comes
di rection
Ġme ters
Ġme dical
res olve
Ġfind ViewById
ĠW indow
ĠW ins
Ġex c
Ġ6 6
ist ance
ĠM a
ĠM at
ĠM od
ĠM onth
ĠM NIST
ĠH andle
Re act
(' <
Ġinput List
ĠO ver
ĠO ption
Ġ7 3
ĠB log
]) ]
tem ber
Ġro ut
Ġget ting
Ġget Area
my sqli
ne ighbors
Ġle af
pa re
Ġdi agonal
Con dition
ĠL even
Ġdo b
Ġdo c
Ġdo ing
and roid
Ġ/ ^[
Ġ/ ^(([
date s
ĠE S
ĠE rror
class ifier
am ming
ven ue
Ġout come
ĠString Buffer
ill ary
Co urse
Ġtotal Score
Ġsh uff
Ġso urces
row ser
ĠIn formation
Ġweb sites
Ġun expected
Ġsorted Arr
De cember
Ċĉ ĠĠĠĠĠĠĠ
ff ff
const ant
Ġhead line
Ġup dating
20 19
Ġstudent Id
Ġright Index
random String
Ġli ve
Ġli mited
email s
ĠNO W
Ġwho le
11 11
Sub sequence
Ġtra iling
To Array
Ġmod al
Ġmod ulus
Ġexec utes
Ġhand written
Of P
Ġconstruct ors
Ġinter faces
side s
ise ct
Ġfe male
trib utes
Ġtrans l
Ġtrans action
Ġlog ged
state ment
ĠEx cel
pri ces
iss iss
Ġ\ \\
Ġdetect s
Ġvalidate s
Ġ? >
Ġamount s
"} )
ĠID s
`` .
Ġque ues
ĠEn c
Ġ45 6
ĠĠĠĠĠĠĠĠĠĠĠĠĠĠĠĠ ĠĠĠĠĠĠĠĠ
ĠTo kyo
Ġexecut able
Th read
parse Int
;"> </
")) @
create Server
+-------- ----+--------
Com bin
Ġgener al
ĠFirst Name
Ġinsertion Sort
Ġrect angular
Ġaccount Number
Ġbalance d
Ġnumer ator
ĠLast Name
high light
Ġra ised
alphabet ical
Ġ"< <
=$ ((
Ġgo ing
divis ors
ron ym
Ġke eps
Me thod
ba z
inter section
ĠQu icksort
Ġengine ering
Ġartic les
('/ ',
Ġretrie ves
ĠItem s
Ġthrow n
Ġinitiali se
Ġinitiali zed
Ġincrease s
Ġindic ates
ass ign
ĠReverse String
Ġscal ar
Ġbehavi ors
Ġmanip ulation
Ġscra pe
repe at
Ġproced ural
Ġfunctional ity
resh ape
Ġdecision s
nolog ies
ĠMax imum
pack age
tra versal
Ġfin ish
Ġfin ished
Ġpol ymorphism
ĠType Error
ipp i
Ġtwe epy
Ġche cked
ĠDec lare
Ġpub lished
ĠCur rent
Ġloo king
predi ctions
Ġdelet ing
ĠUN I
Ġperiod s
@\ "]+
Eng lish
(", ")
omin ator
Ġdol lars
Ge orge
Ġinvo ked
Ġencaps ulation
Ġasynchron ous
dl roW
sport s
1415 9
Ur l
ĠScal a
Sep tember
ĠRandomForest Classifier
je ction
ĠFurther more
ĠGraph QL
ĠEXIST S
)*) |
ĠPot ter
ĠLeven shtein
ississ ippi
! ',
" +
$ .
( !
( .*
) (
. âĢĿ
/ ;
/ </
1 50
3 000
= []
? (
A v
A da
A ccuracy
B ox
D ISTINCT
F unc
G o
I OU
J on
J oe
J uly
L A
M at
M an
M AX
M ich
M edian
N ovember
O L
O S
P U
R ight
S pace
T C
T ask
T IME
W hen
[ ^\
] ++;
_ .+
b u
b st
b ust
b its
b racket
c ery
c loud
e ks
g o
g pa
g ithub
h ouse
i pping
i ki
l r
m ble
m and
o c
o ct
o te
p g
p is
p ayment
p rincipal
r atic
s With
s leep
t end
t we
u k
y ota
| ------
Ġ Hel
Ġ ris
in ing
in ess
Ġa list
Ġt xt
re curs
st rap
st yles
st rawberry
at ter
on y
on ed
on load
Ġc ap
Ġc loud
Ġthe ta
Ġi mag
Ġf ront
Ġin p
Ġin fo
Ġin fix
Ġn ormal
um idity
ar ity
Ġs lic
Ġs ensor
de tect
Ġp in
Ġp ull
Ġp alindromic
Ġre fer
Ġre comm
ra ses
li min
Ġto w
me l
me t
Ġan g
ut ral
Ġ" '
ro ve
Ġe d
Ġe at
Ġe limin
Ġm is
Ġm ana
Ġm orse
Ġb rand
Ġb orn
Ġreturn ing
Ġd river
Ġd ark
Ġ' !
Ġ' $
Ġ' ))
Ġ' ');
Ġ' ').
la zy
ri ority
te ch
Ġ( %
Ġ0 11
Ġv ide
is set
ĠS T
Ġst dev
Ġ5 3
ĠP I
ic ode
pt o
ĠC or
ĠC loud
if ted
ot o
ot ate
ot strap
Ġh istogram
Ġh undred
yth ag
)) .
ĠA LL
ĠN etwork
get Day
get Full
Ġse p
Ġse curity
co pe
Ġmax Depth
ĊĠĠĠĠĠĠĠĠĠĠĠĠ ĠĠĠĠĠĠ
Ġbe autiful
ou ght
ve getable
Ġfind Sum
ĠĊ ĊĠĠĠĠĠĠĠĠĠĠĠ
Ġon Create
Ġnew node
ĠD B
ĠD istance
ze bra
Ġlo ading
Ġcount Vowels
ĠH i
(' {
(' '.
ĠO range
Ġ7 1
Ġor ig
ĠB asic
ĠB ooks
]) /
Ġage SELECT
ore an
Ġro om
Ġget Data
In itialize
Ġ9 6
mplo y
Ġle ading
Ġle vels
per m
ĠL amb
ft p
ost on
up on
pl an
Ġcalculate Sum
fe atures
enc ies
enc rypt
Ġpar sing
Ġsh opping
Ġdis criminant
ĠIn itial
cur rency
Ġlongest Common
}; #
Ġdiv s
12 7
ĠG reeting
ĠG UI
tri c
Ġhead lines
pro perties
Ġsecond Number
par ameters
sh ort
!" #
var char
St ore
Ġcor rel
En try
Ġmost Frequent
Ġdec oder
Ġtest s
Ġtest ed
Ġab c
cess or
ST RING
ob ser
gin al
ĠDo ublyLinkedList
Ġrep ort
Ġmod ules
DO M
An na
Ġextract ing
\. -
\. -]+
]+ \.)+[
Ġinter vals
ca pacity
Char Field
pre processing
Ġen queue
Ġread ability
even s
By tes
Ġtri m
Ġupper Case
Ġfilter ing
New s
os ition
replace All
Par is
Ġincre ments
Ġpop ulous
ĠĊĠĠĠĠĠĠĠĠĠĠĠĠ ĠĠĠĠĠĠ
Ġpalindrome s
Ġlog istic
Qu ick
Qu antity
Ġter rible
ject ive
Ġdepartment s
ĠCheck ing
Ġvalidate Email
Ġ? ></
zed Tree
Ġjava x
({ '
Ġlinear Search
456 7
Cont roller
gre gate
Ġbu ckets
Ġoriginal Number
Ġimp erative
mean s
Th an
rest a
Ġrev Str
Ġund o
Ġdivide s
'} ]
lar ge
ÂłÂł ÂłÂł
Ġsp here
ĠObject s
Ġsign al
Ġnumer als
Min utes
over flow
Te mp
Te ams
33 3
44 44
ĠMe mory
rol led
ĠDe mo
ud y
Ġtrack ing
Ġgo es
ward s
ki wi
udo ku
Ġclic ks
Ġpartition ing
mong odb
Ġengine er
Ġpack ages
rap ing
Ġoption al
Ġ". $
Ġlook up
CE DU
Ġmark up
na ive
("* ");
Ġevalu ation
ABCDEFGHIJKLMNOPQRSTUVWXYZ abcdefghijklmnopqrstuvwxyz
ĠCa cheNode
Customer ID
Ġtermin al
As cending
]? [
Program ming
aeiou AE
ĠOn ce
Ġ'/ ':
Ġbit wise
animal s
update d
Ġdrop down
WWWW WWWW
Multip ly
Ġdistrib uted
MO V
Ġcompo site
Ġrecogn ize
Ġalloc ated
merge d
Ġstyles heet
Ġcommunic ation
ĠRecurs ively
Ġdescrib es
ccu rences
ĠChar act
Ġasteris ks
Ġcy cle
ĠBinarySearch Tree
Call back
ĠTe mperature
Dep artment
Ġbro ken
Ġhierarch ical
Ġleak s
symb ols
gument s
leg end
Ġpres er
Ġder ived
ĠPRO CEDU
Ġdepend encies
Ġprede cessor
ĠVariable s
allen ge
decor ation
ĠUNI QUE
_.+ -]+@[
Ġcap able
ythag orean
getFull Year
aeiouAE IOU
ĠPROCEDU RE
! =
$ "
% "
% ,
) \.
+ ------
, $
. ",
2 000
4 6
4 00
6 78
8 2
8 4
8 8
9 2
: [
= ["
A D
A ut
A mount
B ubble
B ooks
C ard
C ircle
C ipher
F actorial
H ighest
J u
J im
L P
L a
M ost
N ormalize
O ff
P ear
R ad
R oman
S V
S an
S quares
T O
T ER
[ ('
\ _
\ ",
\ [[
] "
] })
a el
a ment
a gs
b uild
b ayes
c ial
c ube
d w
d y
f n
g y
h obbies
i ris
l and
n ormalize
p r
s ay
s cience
s rc
s avedInstanceState
s cope
t od
t own
t urtle
u dio
v id
y g
y ling
z on
| (([
} };
Ċ ĊĠĠĠĠ
Ċ Ċĉ
in force
Ġa es
Ġa ccur
st ates
he s
en ance
at bot
on Create
Ġc ross
Ġi ris
Ġf ar
Ġf ri
Ġf ac
Ġf mt
Ġf urther
Ġin ches
Ġin jection
um my
Ġs lice
Ġs itu
Ġs avedInstanceState
Ġp ers
Ġp red
Ġp df
Ġre as
Ġre order
Ġre ferences
ra ft
li an
str u
Ġan om
se qu
Ġ" {
Ġ" !"
ent s
ent ry
Ġw ra
Ġw ins
int ext
lo sed
un ch
Ġm ight
Ġb ark
Ġb atch
Ġb uffer
Ġ{ $
Ġ{ **
Ġco in
Ġd x
list Of
Ġar bit
Ġis Even
Ġ2 0000
Ġ[ ("
Ġ[ ],
Ġ[ ['
te ams
Ġ0 1
ce fully
Ġv e
Ġl at
ĠĊĠĠĠ ĊĠĠ
ĠS u
ĠS to
ĠS core
Ġprint List
Ġal ong
Ġ5 9
Ġ5 000
ĠP M
Ġpro fit
Ġcon version
ĊĠĠ ĉ
() '
ĠC A
if orm
ĠJ ack
ĠJ oin
ĠJ TextField
ht able
Ġ10 0000
for ward
ĠT ech
(" ")
(" \\
let te
ĠF ib
ĠF izz
ĠF OR
Ġh istory
Ġch un
Ġres ol
act ivity
)) [
)) $/;
ĠA merica
as is
as List
Ġse mi
co mplete
co upon
ed it
ed ge
con firm
Ġmax Sum
ĊĠĠĠĠĠĠĠĠĠĠĠĠ ĠĠĠĠ
ublic ation
Ġword Count
Ġ8 1
Ġ8 2
Ġ6 8
ine apple
ĠD avid
"> #
Ġlo aded
ĠH AVING
ak es
ĠO ut
Ġ7 4
ĠB anana
ĠB lue
]) |(([
Ġro bust
Ġget ters
Ġget Id
Ġget First
Ġget Address
my cursor
Ġkey words
Ġcomp lement
Ġcomp ress
Ġset ter
Ġset Time
ĠL atin
ost hen
up les
ab cc
ab lished
Ġbet a
Ġcalculate Average
Ġmy Dict
am ond
Ġmin Max
fe ed
ĠString s
dict s
Ġpa id
List s
add r
add ition
ill s
enc oder
Ġpar ams
Ġsh own
to Array
to kens
ĠRe gex
play ers
Ġdis ks
Ġgenerate Random
Ġk ind
Ġk elvin
Ġat tack
ĠIn terest
ight s
Ġdate Time
Ġun ne
iffe rent
Ġpre order
Ġper formed
Ġdisplay ed
son ants
ĠG e
ĠG it
ĠG ener
ĠG radient
Ġstudent Name
Ġconvert To
min imum
min Index
ĠV alid
([ \
Ġover ri
Ġover lapping
Ġ11 1
}, {
arn ings
Ġthrough out
left Index
St atus
Ġcor pus
user Data
cat ing
Ġreg ard
read s
Ġunique Array
Ġgra cefully
ĊĠĠĠĠĠĠ ĊĠĠĠĠĠ
Ġtra ce
To ggle
âĢĿ ]
(( \[[
Data set
Ġstack Array
Ġoccur ring
Ġdep loy
ĠK ing
ĠK eep
100 00
Ġhand led
Ġinsert Rec
ĠPro cess
Ġextract ed
Of s
Ġass ist
Ġtop ic
Ġalphabet ic
pre vious
Ġen rolled
Ġ", "
Ġmonth ly
Text View
ĠAn other
Ġappro x
lat in
Ġtrans posed
XX X
Ġcombin ing
Ġ\ (
Ġtry ing
Ċĉĉ Ġ
ĠSe lect
Ġno un
Ġno thing
Ġjava script
99 9
vector izer
ĠSet s
Ġdefin ing
Ġbu y
ĠApp lication
Lo ad
Lo cation
16 8
ac ency
Ġshow ing
ĠFind s
Ġheap q
Ġheap sort
We ather
We ek
Ġcl ub
Ġtech nologies
Ġrel ation
Ġthread ing
Ġrot ated
Ser vice
Ser vlet
Ġevent s
Ġgener ic
Ġ123 45
[\ ]
Al ter
ĠTest ing
vant ages
fib o
fib List
Ġedit s
Car rot
mn ist
ader board
Ġfore st
Ġincrement ed
Last name
Ġinstr ument
Title Case
Ġunsorted List
Content View
Ġxml tod
ĠIS O
ĠUn iversity
ĠĊĉĉĉ ĉ
aa aa
Ġoff set
Ar mstrong
sv g
Ġkeep ing
CE SS
Sh ape
Su ccess
Ġpy game
Ġmaint enance
Ġneighb or
Ġdel ta
Ġmark et
Ġapply ing
fi ed
Ġ'* '
Ġrece ives
Ġexponent ial
}\ ])|(([
Ġscal ability
Ġfa iled
Activ ation
]? \
Ġhost name
Web site
(?: [
Binary Tree
Ġpow ers
Ġhum idity
ĠReg ression
IS BN
Ġexplo de
ĠPer form
Ġdim ensions
FFFF FF
Ġpub lisher
ĠCom mon
ĠWord Press
Dist ance
Fizz Buzz
Occur rence
Exp ression
Ġcommunic ate
Ġtab ular
Ġdecre ment
Ġsatis f
Ġsatis fied
,} ))$/;
pol arity
Ġpract ice
Ġunders cores
Ġfeed back
Fran ce
Imp rove
Ġprom ise
Ġimmedi ately
ĠStruct ure
nlog n
Ġopp o
Ġcre ation
Gre en
ĠTw itter
ĠLib rary
Ġsyntact ically
Ġcrash ing
Ġlexicograph ically
Mongo Client
tren ds
OfP ublication
"))@ ((\[[
(.* ?
Mich ael
tend ance
Ġris k
styles heet
riority Queue
ĠLamb da
obser vers
ĠCharact er
inforce ment
osthen es
Ġxmltod ict
! âĢĿ
" ^[
* \
, ))
, }$
. <
/ (
/ ',
/ ">
5 3
6 5
7 1
9 1
; #
> ',
> ".
? $
? ^
A P
A re
B oolean
B tn
C ost
D an
E E
E st
F ord
F act
F ilter
G ive
I GH
J an
M id
M TP
M atch
N G
N a
N UM
P M
P ower
S ing
S and
S ensor
S UM
S cience
S olve
T er
T en
T arget
T race
V alidate
V erb
W riter
[ {
[ ['
_ +
_ ;
_ ]+
a z
a ches
b log
b rand
b uzz
b ananas
b etween
c ip
c oding
d ark
e ff
f s
f avorite
g reatest
g ba
h a
h orse
h appy
h ysics
i as
j umps
j ump
k g
l se
l lo
o urn
p m
p ray
p ad
s b
s in
s catter
t x
t ar
t mp
t oo
t asks
u ck
v ance
v ader
} &
} ",
´ âĶĢâĶĢâĶĢâĶĢâĶĢâĶĢâĶĢâĶĢâĶ
Ċ ĊĠĠĠĠĠĠĠĠĠĠĠĠĠĠĠ
Ġ ge
Ġ ÃĹ
ĠĠ ĊĠĠĠĠĠ
in p
in verse
ĠĠĠĠ ĊĠ
Ġa way
Ġt ens
ĠĠĠ ĊĠĠĠĠĠĠĠ
re po
st o
st it
er ging
at o
at ient
Ġ= [
on da
Ġc lf
ĊĠĠĠĠ ĊĠĠĠĠĠĠĠ
ĊĠĠĠĠ ĊĠ
ar ithmetic
Ġs ite
Ġs ending
Ġs cikit
Ġs izes
Ġp ig
Ġp ayments
Ġre do
ct ive
li ed
li ef
Ġan chor
al th
se c
se en
Ġ" _
ro te
ro uter
Ġof fer
Ġw in
Ġw ent
Ġw ind
Ġw rote
Ġe ating
lo s
ĊĠ ÂłĠÂłĠÂłĠÂłĠ
un i
Ġm ix
Ġb el
Ġ{ :.
Ġd uration
Ġ' --
Ġ' ('
es ian
ri e
Ġth ings
ul ative
Ġg ives
el ine
el hi
Ġ+ "
Ġv ehicle
is a
ĠS c
ĠS quare
Ġu uid
Ġu pto
ol ymorphism
Ġprint ln
ub lisher
Ġarray Size
Ġ5 2
ĠP ush
ĠP ythagorean
Ġpro f
Ġpro p
Ġma les
Ġcon quer
pp ort
ic ult
ĊĠĠ Ċ
pt er
ĠC oding
ĠC atcher
ĠC PU
id end
Ġ10 8
ĠT om
ma zon
ig uous
ot ient
(" ").
ĠF e
ĠF it
ĠF latten
ĠF etch
ĠF ruit
pe ak
Ġh h
Ġh ad
Ġh over
Ġne ar
Ġch atbot
eng ht
eng lish
ĠA L
ĠA b
ĠA ir
ĠA pa
ĠN ext
get root
Ġse ed
Ġse ctions
co ins
co okie
ed y
Ġsum mary
Ġx http
Ġde script
Ġte acher
Ġas ks
Ġstr ate
Ġstr ip
Ġbe come
Ġclass ified
us r
Ġare as
ĠM ar
app ing
ĠD ay
ĠD FS
Ġcount Words
ĠH at
Re factor
Ġ7 2
Ġ7 6
Ġ7 7
ĠB ob
out er
Ġro ck
Ġro unded
Ġget ter
ĠSQL ite
my Input
ne g
ne ver
Ġnot ification
per ms
Ġcur ly
Ġset Address
Ġset ContentView
ĠL ayout
ĠL CS
[] [
Ġla b
') ">
sum s
ex it
ex as
ĠE ven
ĠE dit
ĠE lse
ab ilities
Ġsub arr
struct or
Ġmy table
Ġmy func
Ġuser Input
com ments
Ġmin ing
ĠThe refore
enc il
enc rypted
ile age
Ġpar alle
Ġsh adow
Ġsh ifted
col lapse
lect ron
ial s
Ġso und
"] .
Ġtime line
ĠR ust
ĠR ye
Ġk v
Ġat temp
AR T
ĠU K
ĠU t
Ġreverse List
Ġun iq
next Line
Ġpre ferences
Ġper ms
main loop
Ċĉ ĊĠĠĠ
Ċĉ ĠĠĠĠĠĠĠĠĠĠĠ
Ġdiv idend
ĠG ame
ĠG reat
ĠG ats
min er
Ġscript ing
pro p
pro gress
ĠV iew
Ġcont iguous
Ġeven s
rect angle
vi se
Ġover ride
py ramid
hel p
do b
Ġoper and
sh a
Ġfo c
St yle
AT ION
yn omial
En ding
che du
Ġdec To
** *
start ing
Se quence
gin ation
ĠDo cker
Sub Value
Ġ` ${
Ġcontent Pane
To yota
Ġsm tp
Ġdes cent
Ġmod ulo
json Object
be lief
wh ite
ĠReact JS
Ġmo ved
Ġmerge sort
Ġgrade Value
At tributes
du cing
ĠFor mat
Ġfrequency Map
ca che
side bar
Ġread ing
Ġcorrect ness
App les
Index Of
Ġsc en
comp ute
comp any
comp ound
comp uter
Ġtrans formation
Ġtrans late
Par ameters
ĠĊĠĠĠĠĠĠĠĠĠĠĠĠ ĠĠĠĠĠ
Ġtyp ing
Int s
loc ations
AL SE
AL TER
ĠĊĉĉ Ċĉ
cont in
19 2
tic s
Ġvis ible
ĠTable B
ĠDate Time
ĠSe lection
Ġless er
Ġperson s
ĠMain Activity
Ġrepe ats
Ġparameter ized
Ġidentify ing
:] ):
ĠĊĠĠĠĠĠĠĠĠ ĊĠĠĠ
ĠĊĠĠĠĠĠĠĠĠ ĠĠĊĠĠĠ
ero Division
valid ation
Ġsplit s
odd s
Do c
rt ificial
ĠEn queue
yy y
Ġca che
Ġca using
Lo cal
ĠTo ken
Th ank
ormali zed
Tree Node
âķ ĲâķĲâķĲâķĲâķ
Ġsco red
.* ;
Ġcons ider
Ġtech nology
ĠMongo Client
Ġmerged List
export s
Ġcopy Ofs
Ġgroup s
port s
Ġsuper class
ĊĠĠĠĠĠĠĠĠĠĠĠĠĠĠĠĠĠĠĠĠ ĠĠĠĠĠĠĠ
Ġadj acency
Ġfour th
view s
Al pha
Ġconcaten ated
Ġprevious ly
Te ch
Ġra ce
Ġph rases
Ġedit or
alphabet ically
Gra pe
Ġpri mit
Ġfiltered Array
Ġbuild ing
ĠDe veloper
Test ing
Ġob server
Ġgo al
ĠPar is
ĠExample s
Last Name
Ġsupp orted
Div ide
Ġbug s
ĠIP v
Ġinher its
ĠSum Of
request s
ĠAr gs
(` ${
Ġali qu
Ġfull Name
Ġstar ted
Start ing
reg ion
ĠText View
Ġclosest Pair
su ch
sv m
des c
Ġconstant s
contact s
Ġut ility
Ġ$( ($
Ġcompile d
Ġinitiali zation
Ġaw esome
Ġrece ived
arg ument
Ġ'- '
Ġresour ce
ĠCol lection
ĠMo vie
af ari
Ġcategor ize
Ġsay Hello
ĠZ eroDivision
tra cking
Ġaux illary
ater mel
Ġip sum
Ġrespon d
Ġorgan ize
weather map
eta il
cle ar
uran ts
Ġest ablish
Ġest ablished
ĠGra de
Ġseriali ze
Ġseriali zedTree
Ġauthentic ate
âĶĢâĶĢâĶĢâĶĢâĶĢâĶĢâĶĢâĶĢâĶ ĢâĶ
MO DE
Ġfew er
Ġjust ify
Ġalloc ate
Occur rences
ho pe
Ġpad x
Ġpad y
Ġaltern ating
ĠDiv ide
Eng ine
Ġdescrib ing
imag inary
Ġwide ly
Ġmagn itude
Ġhome page
ccu rence
ĠVis ual
Ġasteris k
Ġreus able
Ġreus ability
Ġloc ations
Ġloc ated
Ġunders core
Ġins pect
Ġexact ly
Ġtriplet s
+----------- +
+----------- +-----------+
Fa iled
Ġide al
Ġquad ratic
numer al
super vised
Quest ion
Wh y
ĠWh ile
Ġcheckbox es
ĠAppCompat Activity
Ġmultith readed
Ext end
pur pose
Ġbl ank
Ġarrange d
Ġsequential ly
Ġ86 01
ToDec imal
Ġeb x
ĠMa le
assign ed
Man ip
recurs ive
Ġslic ing
Ġmana ging
Ġsitu ation
Ġarbit rary
ĠFizz Buzz
Ter ms
Ġbel ong
ĠApa che
ĠGats by
ĠZeroDivision Error
! ';
' {
( ()
) #
) %
) \
) </
+ (
+ ",
+ ([
- +
. \
. ');
/ :
/ ?
/ ^[
: ,
= %
= <
> &
> ")
? :\/\/
A my
B in
B er
B ig
B ot
B ackground
B ottom
C O
C ON
C amelCase
C opy
D one
D ynamic
D etails
F inal
G D
G lobal
H onda
I LE
I mport
J ap
L STM
M ike
N av
O ptim
P ublished
R U
S I
S c
S he
S ession
S caler
T es
T ri
V ersion
X C
Y ork
Y ellow
Z ip
[ {"
] ==
a ils
c end
c apital
d de
f name
f mt
g sub
h istogram
i ate
j ane
l ates
m ant
m adam
m kdir
n d
n al
n ers
n ormalized
o la
o ccupation
p ing
p ot
p urchase
s g
s ol
s ystem
s mith
s ys
s peech
t ensor
v alidate
v oice
v otes
y ou
z il
} <
} """
} ).
Ġ ):
Ġ radi
Ġ ));
Ġa head
Ġa ug
ĠĠĠ ĊĠĠĠĠĠĠĠĠĠĠĠ
st raction
er on
he app
or row
on ly
on ym
Ġc raw
Ġc nt
Ġthe orem
le phone
le vels
Ġf low
Ġf igure
um b
ar a
ar ator
Ġs aw
Ġs catter
de bug
de mic
it tle
Ġp r
Ġp an
Ġre duces
Ġo cc
ct or
li ver
li kes
str ict
Ġan swers
Ġan cestor
ĊĠĠĠĠĠĠĠ ĊĠĠĠ
ĊĠĠĠĠĠĠĠ ĊĠĠĠĠĠĠĠ
al led
Ġw rap
Ġe ver
lo cating
Ġm ist
Ġm orning
Ġb x
Ġb ind
Ġb ot
Ġb lan
Ġd type
Ġd ummy
Ġnum Days
an aly
Ġ' ..
ri ef
Ġis Sorted
te x
te ction
te am
el t
el ve
Ġv eh
Ġl r
Ġl iter
is o
ĠS ite
ĠS ome
ĠS cikit
Ġst ay
Ġst udy
ol la
Ġ5 7
ĠP ascal
ĠP riorityQueue
Ġpro d
ad vantages
Ġma le
Ġma lic
Ġran king
ic ate
ĊĠĠ ĊĠĠ
ĠC ard
ĠC lose
id f
ĠJ oe
ĠĊĠĠĠĠĠĠĠ ĊĠĠĠ
ĠT ry
ĠT HEN
ĠT rie
ig r
ĠF un
ĠF ore
ĠF ield
Ġ- ,
pe at
__ ()
Ġh er
Ġh ou
Ġh app
Ġh appy
Ġh orizontal
Ġy yyy
Ġrange s
ĠA DD
ĠA pril
ĠN A
ĠN Y
ĠN on
Ġj e
as ync
Ġse d
co efficients
ren ch
Ġde al
Ġde queue
Ġde tection
word Count
Ġchar Counter
Ġ* ,
dd dd
con sumer
-- ){
ĊĠĠĠĠĠĠĠĠĠĠĠĠ ĠĠĠĠĠ
Ġstr to
Ġme et
ve y
Ġfind GCD
head lines
Ġ8 3
Ġ8 8
ĠW or
Ġex pl
Ġ6 1
Ġnew Date
ĠM in
ĠM IME
ly ing
mple ted
SE CRE
ĠD is
ĠD rop
ĠD NA
ĠH H
ĠH anoi
ĠH uffman
Re versed
(' *
ĠO dd
ĠO UT
Ġor iented
ĠB X
ĠB u
ĠB rown
]) (?=.*[
Ġage d
Ġget X
Ġget Email
Ġget Average
") ]
In cre
Ġ9 00
input List
my Class
my Div
per fect
Ġrandom Num
Ġcomp at
ste p
Ġset Id
Con text
char Code
ure r
ĠL ength
[] {
Ġdo ubly
Ġsort By
ĠĊĠ Ċ
ĠĊĠ ĊĠĠĠĠĠĠĠ
ap Year
Ġ/ \
sum Of
date String
ex perience
ĠE vent
ab orn
Ġsub stit
struct ure
ang er
und ant
Ġtext View
Ġmy db
Ġmy Func
am i
count ries
vert ices
Ġtemp Index
Ġout comes
set Text
Ġr gba
Ġapp let
Ġtotal def
Ġpar ses
Array Sum
Ġindex ed
mon strate
ĠR ange
ĠR etrieve
ĠR GB
Ġk g
sub ject
sub tree
sub tract
ĠIn her
ĠIn telligence
Ġdate String
Ġun its
Ġpre ce
Ġlongest Palindrome
po ol
Ġsorted Array
max imum
max Value
ĠG ro
ĠG lobal
Ch ris
Ch oose
Ch icago
pro file
Ġright Points
ĠSt atic
py game
hel per
Comp ress
Comp ound
from keys
Ġbre ed
led ge
sh dw
Ġmatrix B
!" ))
ĠMy Table
ong oose
Ġletter Grade
St age
Ġform s
Ġnext Num
Ġtarget Sum
user Input
user ID
Ġab straction
Ġusers SELECT
Ġgra v
Sub ject
Ġpoint ing
To Check
To Fahrenheit
train ing
new s
Ġdep endent
vent Default
temp eratures
Ġhand les
Ġpla in
Ġmo ving
