{"<s>":0,"<pad>":1,"</s>":2,"<unk>":3,"<mask>":4,"!":5,"\"":6,"#":7,"$":8,"%":9,"&":10,"'":11,"(":12,")":13,"*":14,"+":15,",":16,"-":17,".":18,"/":19,"0":20,"1":21,"2":22,"3":23,"4":24,"5":25,"6":26,"7":27,"8":28,"9":29,":":30,";":31,"<":32,"=":33,">":34,"?":35,"@":36,"A":37,"B":38,"C":39,"D":40,"E":41,"F":42,"G":43,"H":44,"I":45,"J":46,"K":47,"L":48,"M":49,"N":50,"O":51,"P":52,"Q":53,"R":54,"S":55,"T":56,"U":57,"V":58,"W":59,"X":60,"Y":61,"Z":62,"[":63,"\\":64,"]":65,"^":66,"_":67,"`":68,"a":69,"b":70,"c":71,"d":72,"e":73,"f":74,"g":75,"h":76,"i":77,"j":78,"k":79,"l":80,"m":81,"n":82,"o":83,"p":84,"q":85,"r":86,"s":87,"t":88,"u":89,"v":90,"w":91,"x":92,"y":93,"z":94,"{":95,"|":96,"}":97,"~":98,"¡":99,"¢":100,"£":101,"¤":102,"¥":103,"¦":104,"§":105,"¨":106,"©":107,"ª":108,"«":109,"¬":110,"®":111,"¯":112,"°":113,"±":114,"²":115,"³":116,"´":117,"µ":118,"¶":119,"·":120,"¸":121,"¹":122,"º":123,"»":124,"¼":125,"½":126,"¾":127,"¿":128,"À":129,"Á":130,"Â":131,"Ã":132,"Ä":133,"Å":134,"Æ":135,"Ç":136,"È":137,"É":138,"Ê":139,"Ë":140,"Ì":141,"Í":142,"Î":143,"Ï":144,"Ð":145,"Ñ":146,"Ò":147,"Ó":148,"Ô":149,"Õ":150,"Ö":151,"×":152,"Ø":153,"Ù":154,"Ú":155,"Û":156,"Ü":157,"Ý":158,"Þ":159,"ß":160,"à":161,"á":162,"â":163,"ã":164,"ä":165,"å":166,"æ":167,"ç":168,"è":169,"é":170,"ê":171,"ë":172,"ì":173,"í":174,"î":175,"ï":176,"ð":177,"ñ":178,"ò":179,"ó":180,"ô":181,"õ":182,"ö":183,"÷":184,"ø":185,"ù":186,"ú":187,"û":188,"ü":189,"ý":190,"þ":191,"ÿ":192,"Ā":193,"ā":194,"Ă":195,"ă":196,"Ą":197,"ą":198,"Ć":199,"ć":200,"Ĉ":201,"ĉ":202,"Ċ":203,"ċ":204,"Č":205,"č":206,"Ď":207,"ď":208,"Đ":209,"đ":210,"Ē":211,"ē":212,"Ĕ":213,"ĕ":214,"Ė":215,"ė":216,"Ę":217,"ę":218,"Ě":219,"ě":220,"Ĝ":221,"ĝ":222,"Ğ":223,"ğ":224,"Ġ":225,"ġ":226,"Ģ":227,"ģ":228,"Ĥ":229,"ĥ":230,"Ħ":231,"ħ":232,"Ĩ":233,"ĩ":234,"Ī":235,"ī":236,"Ĭ":237,"ĭ":238,"Į":239,"į":240,"İ":241,"ı":242,"Ĳ":243,"ĳ":244,"Ĵ":245,"ĵ":246,"Ķ":247,"ķ":248,"ĸ":249,"Ĺ":250,"ĺ":251,"Ļ":252,"ļ":253,"Ľ":254,"ľ":255,"Ŀ":256,"ŀ":257,"Ł":258,"ł":259,"Ń":260,"ĠĠ":261,"in":262,"ĠĠĠĠ":263,"Ġa":264,"Ġt":265,"ĠĠĠ":266,"re":267,"st":268,"er":269,"he":270,"en":271,"at":272,"or":273,"Ġ=":274,"on":275,"ĊĠĠĠ":276,"Ġc":277,"Ġthe":278,"le":279,"ĊĠĠĠĠ":280,"Ġi":281,"Ġf":282,"ing":283,"Ġin":284,"Ġn":285,"um":286,"ar":287,"Ġs":288,"de":289,"it":290,"Ġp":291,"Ġre":292,"ra":293,"Ġo":294,"ct":295,"li":296,"Ġto":297,"me":298,"str":299,"Ġan":300,"ĊĠĠĠĠĠĠĠ":301,"ur":302,"al":303,"ge":304,"ate":305,"se":306,"ion":307,"ut":308,"Ġ\"":309,"ro":310,"ent":311,"Ġof":312,"Ġ<":313,"Ġw":314,"Ġe":315,"int":316,"Ġ1":317,"lo":318,"ĊĠ":319,"un":320,"Ġm":321,"urn":322,"turn":323,"Ġb":324,"Ġreturn":325,"Ġ{":326,"th":327,"Ġco":328,"ame":329,"Ġd":330,"string":331,"Ġnum":332,"an":333,"iv":334,"list":335,"):":336,"ers":337,"mp":338,"Ġfor":339,"Ġar":340,"Ġand":341,"ĊĠĠĠĠĠĠĠĠ":342,"Ġ'":343,"es":344,"la":345,"rint":346,"ri":347,"Ġth":348,"Ġis":349,"ul":350,"ss":351,"Ġ2":352,"ction":353,"Ġ[":354,"Ġg":355,"ch":356,"te":357,"Ġ(":358,"ray":359,"Ġ0":360,");":361,"ite":362,"Ġif":363,"ce":364,"Ġnumb":365,"def":366,"el":367,"ord":368,"ment":369,"qu":370,"</":371,"Ġstring":372,"Ġ+":373,"Ġv":374,"reate":375,"ĊĠĠĠĠĠĠĠĠĠĠĠ":376,"Ġl":377,"ble":378,"Ġ}":379,"put":380,"ran":381,"unction":382,"is":383,"Ġ3":384,"ĠĊĠĠĠ":385,"iven":386,"ĠS":387,"Ġlist":388,"ith":389,"Ġst":390,"rite":391,"Ġu":392,"ol":393,"lement":394,"Ġprint":395,"Ġal":396,"tr":397,"ub":398,"ata":399,"ue":400,"Ġarray":401,"Ġthat":402,"Create":403,"Ġgiven":404,"Ġ5":405,"et":406,"om":407,"num":408,"ĠP":409,"\",":410,"Ġpro":411,"ort":412,"Write":413,"ad":414,"Ġma":415,"il":416,"Ġint":417,"av":418,"age":419,"Ġcon":420,"name":421,"Ġran":422,"pp":423,"Ġfunction":424,"able":425,"arr":426,"ic":427,"ĊĠĠ":428,"Ġcode":429,"xt":430,"ver":431,"()":432,"',":433,"Ġ4":434,"ode":435,"pt":436,"ĠC":437,"if":438,"Ġname":439,"low":440,"id":441,"ĠJ":442,"=\"":443,"ht":444,"ult":445,"Ġarr":446,"end":447,"ke":448,"//":449,"Ġnumber":450,"ind":451,"Ġ10":452,"Ġ#":453,"rom":454,"ĠĊĠĠĠĠĠĠĠ":455,"lass":456,"od":457,"lic":458,"Ġwith":459,"Ġ==":460,"Ġelement":461,"unt":462,"ation":463,"gra":464,"for":465,"ĠT":466,"ma":467,"ig":468,"ot":469,"print":470,"(\"":471,"let":472,"Ġnumbers":473,"ĠF":474,"ck":475,"Ġ-":476,"ava":477,"ter":478,"ir":479,"pe":480,"__":481,"Ġh":482,"Ġdata":483,"Ġne":484,"yth":485,"ython":486,"Ġch":487,"alue":488,"Ġfrom":489,"tring":490,"Ġy":491,"gram":492,"ĠJava":493,"Ġrange":494,"eng":495,"td":496,"cri":497,"Ġres":498,"act":499,"))":500,"Ġus":501,"ength":502,"ĠA":503,"ĠN":504,"wo":505,"get":506,"ary":507,"Ġwh":508,"Ġj":509,"as":510,"cript":511,"Ġse":512,"Ġall":513,"co":514,"ed":515,"ĊĠĠĠĠĠ":516,"ĠPython":517,"ren":518,"uct":519,"++":520,"Ġsum":521,"ĠI":522,"Ġx":523,"Ġde":524,"Ġtwo":525,"ase":526,"Ġprogram":527,"word":528,"Ġchar":529,"Ġte":530,"ow":531,"Ġ*":532,"\":":533,"Ġfol":534,"Ġas":535,"dd":536,"con":537,"Ġfollow":538,"Ġmax":539,"00":540,"\"\"":541,"--":542,"ĊĠĠĠĠĠĠĠĠĠĠĠĠ":543,"Ġqu":544,"Ġstr":545,"utput":546,"Ġbe":547,"Ġfollowing":548,"ect":549,"Ġclass":550,"ou":551,"di":552,"ublic":553,"op":554,"Ġit":555,"Ġ</":556,"Ġme":557,"ta":558,"Ġ>":559,"Ġresult":560,"res":561,"Ġ//":562,"ve":563,"':":564,"Ġfind":565,"Ġwhi":566,"ĠĊ":567,"cc":568,"String":569,"Ġword":570,"LE":571,"head":572,"us":573,"Ġ8":574,"Ġare":575,"Ġon":576,"ĠW":577,"Ġex":578,"Ġ6":579,"key":580,"ĠĊĠĠ":581,"ist":582,"CT":583,"Ġnew":584,"dom":585,"ĠM":586,"RO":587,"ery":588,"ener":589,"],":590,"mport":591,"ld":592,"ly":593,"Ġvalue":594,"Hel":595,"mple":596,"Hello":597,"SE":598,"app":599,"ine":600,"orld":601,"Ġel":602,"ence":603,"Ġsel":604,"ĠD":605,"gest":606,"Ġself":607,"Ġ+=":608,"ze":609,"numb":610,"im":611,"ml":612,"QL":613,"\">":614,"The":615,"bj":616,"pla":617,"Ġlo":618,"dex":619,"Ġelse":620,"LECT":621,"enerate":622,"Ġcal":623,"ress":624,"ROM":625,"Ġcount":626,"ĠH":627,"ak":628,"length":629,"Re":630,"irst":631,"SELECT":632,"Ġelements":633,"Script":634,"Ġtable":635,"('":636,"Ġinput":637,"ĠĊĠĠĠĠĠĠĠĠĠĠĠ":638,"ust":639,"Ġquery":640,"Ġlen":641,"ye":642,"ype":643,"art":644,"ĠJavaScript":645,"ĠO":646,"];":647,"html":648,"itle":649,"Ġ7":650,"Ġcan":651,"++)":652,"sed":653,"Ġor":654,"ĊĠĠĠĠĠĠĠĠĠĠĠĠĠĠĠ":655,"ĠB":656,"Ġadd":657,"so":658,"teg":659,"ime":660,"Ġusing":661,"ER":662,"gor":663,"ay":664,"])":665,"Ġage":666,"cul":667,"ore":668,"out":669,"ach":670,"tem":671,"dent":672,"Ġdef":673,"Ġcol":674,"Ġro":675,"form":676,"mo":677,"Ġget":678,"array":679,"Ġthis":680,"\")":681,"import":682,"data":683,"tain":684,"Ġ%":685,"rent":686,"In":687,"ity":688,"ody":689,"bject":690,"lf":691,"ĠSQL":692,"Ġ9":693,"Ġcharact":694,"input":695,"ali":696,"odel":697,"Ġ$":698,"Ġlet":699,"hn":700,"div":701,"one":702,"ohn":703,"Ġby":704,"ĊĊĠĠĠ":705,"ML":706,"ustom":707,"self":708,"ted":709,"mplo":710,"my":711,"ces":712,"ne":713,"mploye":714,"ib":715,"his":716,"Ġtype":717,"ithm":718,"heck":719,"gorithm":720,"Ġnot":721,"ample":722,"Ġinteg":723,"ive":724,"ph":725,"body":726,"ize":727,"culate":728,"TML":729,"rue":730,"Ġle":731,"per":732,"Ġitem":733,"mail":734,"Ġrandom":735,"Ġkey":736,"ree":737,"Ġcomp":738,"Ġcur":739,"Ġalgorithm":740,"pa":741,"verse":742,"order":743,"len":744,"ste":745,"umn":746,"Ġ|":747,"Ġdi":748,"Ġpublic":749,"Ġset":750,"Con":751,"char":752,"ure":753,"ĠL":754,"Ġtak":755,"append":756,"Name":757,"ft":758,"ip":759,"ĠHTML":760,"Ġstrings":761,"rime":762,"Ġfirst":763,"title":764,"log":765,"[]":766,"que":767,"sole":768,"Ġtakes":769,"ide":770,"Ġla":771,"alse":772,"')":773,"we":774,"Ġcontain":775,"function":776,"Ġcreate":777,"text":778,"Ġloop":779,"John":780,"ost":781,"Ġdo":782,"udent":783,"Ġsort":784,"ĠĊĠ":785,"yste":786,"ystem":787,"ari":788,"âĢ":789,"and":790,"ack":791,"Ġwhich":792,"Ġobject":793,"ap":794,"ĠWorld":795,"ug":796,"Ġ/":797,"entence":798,"sum":799,"Ġcom":800,"Ġoutput":801,"public":802,"up":803,"alu":804,"date":805,"][":806,"ex":807,"are":808,"ĠE":809,"Ġwords":810,"ab":811,"acc":812,"thod":813,"Ġwe":814,"lu":815,"Ġreturns":816,"Ġsub":817,"struct":818,"ser":819,"atic":820,"oo":821,"arch":822,"rray":823,"ang":824,"oid":825,"und":826,"Ġwhile":827,"Ġeach":828,"Ġtext":829,"10":830,"Ġ__":831,"ERE":832,"Ġmat":833,"orted":834,"ition":835,"Ġ[]":836,"Ġmethod":837,"duct":838,"HERE":839,"ument":840,"ght":841,"();":842,"item":843,"Ġcheck":844,"ign":845,"class":846,"Ġpo":847,"ĠFROM":848,"Ġbet":849,"pl":850,"Ġwhe":851,"Ġcalculate":852,"Ġmy":853,"am":854,"count":855,"ibon":856,"ibonacc":857,"ther":858,"Ġlength":859,"vert":860,"Ġuser":861,"ibonacci":862,"Num":863,"com":864,"Ġcustom":865,"numbers":866,"Ġtemp":867,"Generate":868,"mat":869,"Ġmin":870,"right":871,"Ġstatic":872,"alues":873,"Ġ20":874,"clu":875,"Ġused":876,"ven":877,"fe":878,"ween":879,"Ġout":880,"set":881,"Ġmain":882,"ĠString":883,"dict":884,"ĠOutput":885,"Ġpa":886,"ify":887,"Ġbetween":888,"List":889,"Ġend":890,"Ġr":891,"add":892,"number":893,"tal":894,"ĊĠĠĠĠĊĠĠĠ":895,"ill":896,"----":897,"ongest":898,"Ġorder":899,"ctionary":900,"ks":901,"red":902,"ĠThe":903,"\"\"\"":904,"Ġapp":905,"rix":906,"value":907,"enc":908,"Co":909,"ile":910,"Ġtotal":911,"Ġpar":912,"imum":913,"Ġthan":914,"clude":915,"ber":916,"ĠĊĠĠĊĠĠĠ":917,"Ġsh":918,"Array":919,"move":920,"ariable":921,"uld":922,"col":923,"ssword":924,"\".":925,"Ġvoid":926,"Ġid":927,"Ġarg":928,"to":929,"This":930,"mployees":931,"lect":932,"Ġ<<":933,"Ġindex":934,"\";":935,"ance":936,"Ġstate":937,"ath":938,"Ġhe":939,"ĠRe":940,"plit":941,"play":942,"Ġintegers":943,"bel":944,"ial":945,"Ġinto":946,"Ġso":947,"Ġnode":948,"mon":949,"nums":950,"\");":951,"Ġcharacters":952,"FROM":953,"Ġpage":954,"Ġcurrent":955,"Ġdis":956,"\"]":957,"ression":958,"Ġtime":959,"row":960,"Des":961,"ĠR":962,"alary":963,"Ġgenerate":964,"ies":965,"Ġk":966,"Ġ<=":967,"Ġprints":968,"sub":969,"Ġvariable":970,"Ġ!":971,")):":972,"ĠSystem":973,"Ġstore":974,"ould":975,"ton":976,"rice":977,"Ġat":978,"mit":979,"index":980,"Ġvalues":981,"ĠIn":982,"Ġexp":983,"NT":984,"words":985,"Ġmodel":986,"Ġdictionary":987,"Ġweb":988,"><":989,"Ġsu":990,"utton":991,"AR":992,"),":993,"of":994,"ute":995,"ĠU":996,"ln":997,"Ġreverse":998,"ouble":999,"Ġ=>":1000,"Ġ!=":1001,"ters":1002,"Ġsentence":1003,"Ġprime":1004,"Ġyou":1005,"cond":1006,"ultip":1007,"Ġ:":1008,"ight":1009,"Ġrow":1010,"ĠĠĠĠĠĠĠĠ":1011,"label":1012,"Ġdate":1013,"ps":1014,"table":1015,"Given":1016,"cur":1017,"println":1018,"element":1019,"Ġun":1020,"iffe":1021,"reat":1022,"next":1023,"Ġuse":1024,"sing":1025,"Ġpre":1026,"Ġlast":1027,"our":1028,"Ġ[\"":1029,"Ġlongest":1030,"po":1031,"Ġcolumn":1032,"ĠTrue":1033,"base":1034,"';":1035,"Ġcharacter":1036,"ear":1037,"ni":1038,"Ġsorted":1039,"Ġper":1040,"main":1041,"']":1042,"Ġ12":1043,"ange":1044,"ĠFalse":1045,"Ġdisplay":1046,"Ġits":1047,"Ġproduct":1048,"Ġsearch":1049,"br":1050,"mplement":1051,"inary":1052,"De":1053,"son":1054,"};":1055,"Ċĉ":1056,"Ġremove":1057,"ations":1058,"max":1059,"Construct":1060,"ash":1061,"Ġwill":1062,"Ġdiv":1063,"Ġone":1064,"Ġstatement":1065,"px":1066,"model":1067,"rain":1068,"12":1069,"include":1070,"ff":1071,"cho":1072,"requ":1073,"ĠG":1074,"ors":1075,"place":1076,"const":1077,"les":1078,"ave":1079,"tri":1080,"Ġstruct":1081,"riv":1082,"IN":1083,"hat":1084,"sort":1085,"split":1086,"Ġ15":1087,"ked":1088,"Ġhead":1089,"iel":1090,"Ġup":1091,"20":1092,"::":1093,"ant":1094,"Ġstudent":1095,"Ġconvert":1096,"igit":1097,"quence":1098,"Design":1099,"alid":1100,"Ġ\"\"\"":1101,"Ġwrite":1102,"ield":1103,"min":1104,"argest":1105,"Ġsize":1106,"ates":1107,"Ġstart":1108,"pon":1109,"Number":1110,"Ġdiffe":1111,"Ġscript":1112,"Ch":1113,"ry":1114,"pro":1115,"Ġmaximum":1116,"mployee":1117,"Ġright":1118,"ork":1119,"pec":1120,"ew":1121,"Ġ25":1122,"ĠV":1123,"Ġmultip":1124,"():":1125,"['":1126,"example":1127,"What":1128,"htt":1129,"cument":1130,"Ġemail":1131,"Ġselect":1132,"ator":1133,"Ġcont":1134,"ption":1135,"arget":1136,"ract":1137,"Ġeven":1138,"Ġnames":1139,"ON":1140,"yle":1141,"rect":1142,"result":1143,"Ġleft":1144,"ĠNode":1145,"Ġcontains":1146,"ĠSt":1147,"Ġconsole":1148,"LL":1149,"ana":1150,"random":1151,"Ġexpression":1152,"vi":1153,"How":1154,"__(":1155,"WHERE":1156,"Ġlin":1157,"rence":1158,"([":1159,"SS":1160,"console":1161,"resent":1162,"quest":1163,"all":1164,"ess":1165,"ĠNone":1166,"Table":1167,"init":1168,"Ġtrue":1169,"Ġover":1170,"ĠThis":1171,").":1172,"ens":1173,"nipp":1174,"Ġhave":1175,"Ġsecond":1176,"Ġli":1177,"Ġsnipp":1178,"Ġinteger":1179,"par":1180,"Ġstructure":1181,"Ġsnippet":1182,"){":1183,"val":1184,"Ġemployees":1185,"Ġequ":1186,"'.":1187,"email":1188,"Ġ11":1189,"ular":1190,"ical":1191,"test":1192,"ild":1193,"ending":1194,"Ġcustomers":1195,"py":1196,"Ġdouble":1197,"Ex":1198,"Ġtheir":1199,"ty":1200,"Ġgreat":1201,"Ġstd":1202,"verage":1203,"Ġ100":1204,"Ġroot":1205,"hel":1206,"Ġnums":1207,"Ġsalary":1208,"ĠFibonacci":1209,"pper":1210,"ĠâĢ":1211,"Ġspec":1212,"Ġany":1213,"ique":1214,"sert":1215,"Comp":1216,"ont":1217,"dit":1218,"ec":1219,"size":1220,"},":1221,"arn":1222,"lif":1223,"tern":1224,"velo":1225,"idth":1226,"..":1227,"ULL":1228,"from":1229,"Ġmake":1230,"'s":1231,"script":1232,"ĠWHERE":1233,"ible":1234,"req":1235,"Ġbre":1236,"Ġaddress":1237,"ĠNULL":1238,"Ġpos":1239,"Using":1240,"do":1241,"ming":1242,"oin":1243,"Ġoper":1244,"ĠCSS":1245,"ast":1246,"Ġimport":1247,"Ġline":1248,"Ġcolor":1249,"lst":1250,"led":1251,"lower":1252,"Ġ30":1253,"ĠĊĠĠĠĠĠĠĠĠĠĠĠĠĠĠĠ":1254,"uplic":1255,"sh":1256,"els":1257,"Ġgreater":1258,"Ġmatrix":1259,"!\"":1260,"->":1261,"ĠBY":1262,"root":1263,"ww":1264,"ĠĠĊĠĠĠ":1265,"25":1266,"ory":1267,"Ġfalse":1268,"ĠĊĉ":1269,"ssage":1270,"ĠMy":1271,"roug":1272,"Ġbinary":1273,"velop":1274,"rough":1275,"url":1276,"Ġext":1277,"ient":1278,"Ġta":1279,"ong":1280,"]]":1281,"attern":1282,"');":1283,"day":1284,"Ġthrough":1285,"Ġletter":1286,"iz":1287,"time":1288,"bin":1289,"gro":1290,"Ġfo":1291,"Ġbreak":1292,"var":1293,"left":1294,"loat":1295,"Ġboo":1296,"erson":1297,"://":1298,"Ġbase":1299,"Ġhig":1300,"($":1301,"requenc":1302,"Ġz":1303,"Ġelif":1304,"Ġcommon":1305,"ĠIt":1306,"der":1307,"St":1308,"Ġcor":1309,"Ġcase":1310,"Ġhas":1311,"Ġargument":1312,"AT":1313,"uage":1314,"Ġaverage":1315,"err":1316,"anguage":1317,"vide":1318,"ĠNO":1319,"Ġdocument":1320,"SON":1321,"yn":1322,"Ġform":1323,"onent":1324,"Ġdatabase":1325,"items":1326,"='":1327,"ick":1328,"button":1329,"Ġiter":1330,"ated":1331,"Ġitems":1332,"Ġcontaining":1333,"Ġcustomer":1334,"âĶ":1335,"lication":1336,"En":1337,"Ġnext":1338,"Ġarea":1339,"che":1340,"cord":1341,"ĊĊĠ":1342,"Ġtarget":1343,"Ġrequest":1344,"Ġlargest":1345,"Ġbo":1346,"user":1347,"alind":1348,"cat":1349,"lay":1350,"ccur":1351,"ĠNOT":1352,"Edit":1353,"Ma":1354,"core":1355,"]:":1356,"Ġshould":1357,"case":1358,"ses":1359,"Ġmost":1360,"Ġ['":1361,"Ġyear":1362,"Ġdec":1363,"Element":1364,"ĠY":1365,"rome":1366,"AB":1367,"ci":1368,"ext":1369,"Ġtest":1370,"Ġsuch":1371,"Ġother":1372,"Ġmid":1373,"olumn":1374,"Ġ>=":1375,"ĠJSON":1376,"password":1377,"radi":1378,"ector":1379,"Ġparame":1380,"rivate":1381,"alindrome":1382,"Ġvalid":1383,"Ġacc":1384,"Ġmore":1385,"actor":1386,"Ġsequence":1387,"Ġequal":1388,"ating":1389,"ard":1390,"Ġ&":1391,"Ġab":1392,"Ġargs":1393,"ific":1394,"Ġreg":1395,"Ġthree":1396,"Ġwho":1397,"Ġonly":1398,"imal":1399,"cending":1400,"Ġsame":1401,"hello":1402,"cal":1403,"ura":1404,"apple":1405,"ground":1406,"iali":1407,"ackground":1408,"Ġser":1409,"ifi":1410,"come":1411,"));":1412,"Ġexample":1413,"ding":1414,"Ġworld":1415,"Ġfield":1416,"Ġfont":1417,"**":1418,"Ġthen":1419,"ĊĠĊĠĠĠ":1420,"000":1421,"requency":1422,"start":1423,"Ġconst":1424,"__':":1425,"Ġfil":1426,"Ġprovide":1427,"ĠName":1428,"Ġwhere":1429,"Ġ'__":1430,"Ġpassword":1431,"RE":1432,"ĠĠĠĠĠĠĠ":1433,"else":1434,"Ġlanguage":1435,"read":1436,"Ġprogramming":1437,"cess":1438,"color":1439,"Se":1440,"mb":1441,"anana":1442,"uggest":1443,"Ġunique":1444,"></":1445,"ST":1446,"ob":1447,"rans":1448,"Ġdivis":1449,"Find":1450,"gin":1451,"ull":1452,"erge":1453,"Ġsw":1454,"Ġusers":1455,"Ġgra":1456,"find":1457,"angle":1458,"Ġprivate":1459,"ĠINT":1460,"ĠDo":1461,"11":1462,"lete":1463,"Ġ{'":1464,"ĊĠĠĠĠĠĠĠĠĠ":1465,"Ġlst":1466,"Ġ[[":1467,"ĠCo":1468,"return":1469,"ĊĠĠĠĠĠĠ":1470,"uth":1471,"Ġwhen":1472,")]":1473,"cre":1474,"first":1475,"join":1476,"Ġrep":1477,"abet":1478,"ATE":1479,"node":1480,"phabet":1481,"pace":1482,"IM":1483,"Ġcolumns":1484,"Implement":1485,"Ġwould":1486,"Sub":1487,"ĠCreate":1488,"Ġtitle":1489,"++;":1490,"Ġcalled":1491,"Ġsubstring":1492,"Ġ.":1493,"Ġtree":1494,"Ġpoint":1495,"Suggest":1496,"quare":1497,"Ġcurr":1498,"curs":1499,"ponse":1500,"ream":1501,"Ġprice":1502,"cept":1503,"SQL":1504,"ative":1505,"ature":1506,"Ġformat":1507,"versed":1508,"Ġ`":1509,"mpty":1510,"https":1511,"Ġmean":1512,"sentence":1513,"Ġord":1514,"Ġtra":1515,"Ġrecord":1516,"Ġ{}":1517,"ffic":1518,"igits":1519,"Ġcontent":1520,"PI":1521,"To":1522,"]);":1523,"Ġsm":1524,"Ġodd":1525,"Age":1526,"ain":1527,"âĢĿ":1528,"ush":1529,"plain":1530,"matrix":1531,"((":1532,"Ġ50":1533,"Data":1534,"ner":1535,"Ġerr":1536,"onth":1537,"try":1538,"Ġrepresent":1539,"train":1540,"ref":1541,"itiali":1542,"Ġstack":1543,"Ġrows":1544,"radius":1545,"inal":1546,"Ġnp":1547,"Ġday":1548,"ender":1549,"actorial":1550,"''":1551,"Ġallow":1552,"ĠIf":1553,"Ġdes":1554,"prime":1555,"ĊĠĠĊĠĠĠ":1556,"hone":1557,"Ġlists":1558,"Row":1559,"Ġjson":1560,"Ġ},":1561,"Ġmod":1562,"Ġexec":1563,"123":1564,"50":1565,"Node":1566,"Ġway":1567,"qui":1568,"formation":1569,"Ġlinked":1570,"uplicates":1571,"Ġoccur":1572,"Sort":1573,"Ġthem":1574,"lection":1575,"new":1576,"site":1577,"Ġent":1578,"dition":1579,"est":1580,"mut":1581,"Ġemployee":1582,"otal":1583,"Ġdep":1584,"Id":1585,"eras":1586,"lean":1587,"Ġwidth":1588,"fficient":1589,"alculate":1590,"Ġquick":1591,"ustomer":1592,"json":1593,"vent":1594,"DO":1595,"ĠK":1596,"Ġcomple":1597,"ĠâĢľ":1598,"RL":1599,"price":1600,"Ġrequi":1601,"ĢâĶ":1602,"city":1603,"temp":1604,"You":1605,"ten":1606,"Ġobjects":1607,"CH":1608,"ger":1609,"stance":1610,"ĠMath":1611,"abc":1612,"graph":1613,"rences":1614,"100":1615,"RD":1616,"rr":1617,"reet":1618,"Ġimplement":1619,"Ġbackground":1620,"Ġhand":1621,"Ġlearn":1622,"Ġdifferent":1623,"Ġdelete":1624,"mount":1625,"My":1626,"Pro":1627,"be":1628,"wh":1629,"Ġsol":1630,"Ġpattern":1631,"dentify":1632,"Ġinsert":1633,"ĠAdd":1634,"ĠĊĠĠĊĠĠĠĠĠĠĠ":1635,"ĠĠĊĠĠĠĠĠĠĠ":1636,"ĠReact":1637,"substring":1638,"45":1639,"Ġfloat":1640,"ĊĠĠĊĠ":1641,"Ġ16":1642,"Develop":1643,"Sum":1644,"Ġpair":1645,"ower":1646,"ĠMySQL":1647,"Ġorders":1648,"CRE":1649,"ES":1650,"ĠX":1651,"Ġpla":1652,"Ġmo":1653,"Ġcout":1654,"An":1655,"Ġenc":1656,"Ġvariables":1657,"CHAR":1658,"Âł":1659,"Ġreversed":1660,"Ġ\"\"":1661,"ĠPro":1662,"ĠĊĠĠĠĠĠ":1663,"Ġstyle":1664,"Ġmerge":1665,"Convert":1666,"Enter":1667,"Ġprintf":1668,"ARCHAR":1669,"Ġgrade":1670,"Output":1671,"Ġperform":1672,"Ġextract":1673,"Of":1674,"sorted":1675,"Ġinformation":1676,"Ġmessage":1677,"\\.":1678,"owels":1679,"ĠVARCHAR":1680,"].":1681,"ep":1682,"Ġ18":1683,"Ġcondition":1684,"ous":1685,"At":1686,"âĢĻ":1687,"du":1688,"ix":1689,"Ġass":1690,"Ġpart":1691,"Ġconstruct":1692,"ĠFor":1693,"ĊĠĠĠĠĠĠĠĠĠĠĠĠĠĠĠĠĠĠĠ":1694,"Ġheight":1695,"Input":1696,"Column":1697,"Ġtf":1698,"style":1699,"ctiv":1700,"Ġtop":1701,"alle":1702,"blem":1703,"Ġcomm":1704,"hen":1705,"rame":1706,"())":1707,"--------":1708,"]+":1709,"bo":1710,"iost":1711,"elcome":1712,"Ġinter":1713,"Ġposition":1714,"iostream":1715,"UP":1716,"uild":1717,"address":1718,"ĢâĶĢâĶ":1719,"Ġfrequency":1720,"gex":1721,"Ġvar":1722,"ĠAPI":1723,"elements":1724,"ĠPrint":1725,"Ġcall":1726,"ĠDoe":1727,"RDER":1728,"agraph":1729,"Ġside":1730,"Ġefficient":1731,"Ġrecords":1732,"OU":1733,"ca":1734,"total":1735,"Ġfactorial":1736,"this":1737,"Ġ/>":1738,"Ġhtml":1739,"ĠList":1740,"Ġwhether":1741,"submit":1742,"Char":1743,"uthor":1744,"Class":1745,"ice":1746,"Ġalphabet":1747,"ĠCon":1748,"Explain":1749,"pre":1750,"side":1751,"Ġneed":1752,"HP":1753,"ution":1754,"untry":1755,"las":1756,"Ġmethods":1757,"allest":1758,"cy":1759,"eve":1760,"Ġen":1761,"hest":1762,"itive":1763,"lock":1764,"utes":1765,"strings":1766,"Ġsorting":1767,"exp":1768,"gs":1769,"Ġread":1770,"ĠPHP":1771,"even":1772,"push":1773,"Ġalso":1774,"ĠStudent":1775,"Ġregular":1776,"Ġfibonacci":1777,"ified":1778,"while":1779,"ll":1780,"write":1781,"Ġsyn":1782,"Ġparameters":1783,"Date":1784,"Ġsquare":1785,"Ġretri":1786,"Ġ\",":1787,"itialize":1788,"banana":1789,"Ġmem":1790,"Ġdist":1791,"tax":1792,"option":1793,"sq":1794,"Ġstudents":1795,"range":1796,"Ġnamed":1797,"Ġyour":1798,"artment":1799,"Ġcomplex":1800,"keras":1801,"Ġpur":1802,"Ġreplace":1803,"rand":1804,"Ġdifference":1805,"its":1806,"Ġproper":1807,"Use":1808,"World":1809,"Ġman":1810,"Ġ===":1811,"Ġ&&":1812,"IT":1813,"echo":1814,"yp":1815,"Ġpython":1816,"charact":1817,"Ġlearning":1818,"By":1819,"ah":1820,"Ġac":1821,"Ġtri":1822,"Ġempty":1823,"Ġmonth":1824,"ubble":1825,"iff":1826,"year":1827,"Ġproducts":1828,"Ġrequests":1829,"Value":1830,"db":1831,"ise":1832,"mid":1833,"Ġplace":1834,"Ġcommand":1835,"Text":1836,"page":1837,"Ġfreq":1838,"ell":1839,"http":1840,"mine":1841,"ures":1842,"Ġfound":1843,"\",\"":1844,"ĠAS":1845,"ĠAn":1846,"30":1847,"Mod":1848,"ĊĊĠĠĠĠĠĠĠ":1849,"Ġad":1850,"Ġfe":1851,"Ġmar":1852,"Ġupper":1853,"0000":1854,"Ġhigh":1855,"Ġrecurs":1856,"ivot":1857,"Ġhow":1858,"Ġcompare":1859,"Count":1860,"www":1861,"ural":1862,"Length":1863,"code":1864,"reverse":1865,"erature":1866,"last":1867,"Ġ32":1868,"old":1869,"Ġmatch":1870,"Ġrun":1871,"Ġcorrect":1872,"Ġfilter":1873,"For":1874,"Ġappro":1875,"Ġspecific":1876,"[\"":1877,"lick":1878,"teger":1879,"Ġtrain":1880,"App":1881,"New":1882,"ius":1883,"lue":1884,"os":1885,"replace":1886,"Ġsing":1887,"Ġhref":1888,"Case":1889,"da":1890,"lat":1891,"map":1892,"Ġdataset":1893,"ĠArray":1894,"ook":1895,"Ġnull":1896,"Index":1897,"ĠReturn":1898,"ABLE":1899,"Ġval":1900,"irc":1901,"cs":1902,"line":1903,"Ġsc":1904,"Ġ->":1905,"comp":1906,"Ġbased":1907,"df":1908,"void":1909,"ally":1910,"tect":1911,"php":1912,"Ġcomponent":1913,"Print":1914,"lin":1915,"Ġinclude":1916,"Ġphone":1917,"Ġecho":1918,"Ġwithout":1919,"Ġdeter":1920,"own":1921,"using":1922,"Ġtimes":1923,"trib":1924,"Ġproblem":1925,"ĠFunction":1926,"cent":1927,"ef":1928,"ense":1929,"Ġbutton":1930,"ane":1931,"oup":1932,"Ġmemory":1933,"});":1934,"Ġtrans":1935,"Ġfunctions":1936,"ĠCOU":1937,"Ġchange":1938,"Ġhighest":1939,"Modify":1940,"ĠCOUNT":1941,"*)":1942,"sp":1943,"sw":1944,"Ġ{\"":1945,"ited":1946,"Ġascending":1947,"apit":1948,"Ġapplication":1949,"river":1950,"Ġlower":1951,"student":1952,"search":1953,"Ġprocess":1954,"format":1955,"Ġoperator":1956,"ND":1957,"fil":1958,"gn":1959,"Ġdivisible":1960,"ru":1961,"Ġ\");":1962,"ĠJohn":1963,"dian":1964,"Ġminimum":1965,"Submit":1966,"Ġsyntax":1967,"!</":1968,"15":1969,"PE":1970,"fter":1971,"imple":1972,"Ġbrow":1973,"ROUP":1974,"Ġkeys":1975,"charAt":1976,"layers":1977,"He":1978,"Par":1979,"Welcome":1980,"gative":1981,"Ġincre":1982,"cout":1983,"Max":1984,"Add":1985,"work":1986,"Ġthey":1987,"Ġpop":1988,"++){":1989,"Ġdoes":1990,"Ġparagraph":1991,"pos":1992,"Ġboth":1993,"Ġswap":1994,"type":1995,"Ġarrays":1996,"ices":1997,"Ġexist":1998,"[-":1999,"Ġ\")":2000,"Change":2001,"product":2002,":</":2003,"ning":2004,"pop":2005,"ategor":2006,"pose":2007,"customer":2008,"ĠĊĠĠĠĠĠĠĠĠĠĠĠĠ":2009,"Ġfib":2010,"Ġblock":2011,"current":2012,"ically":2013,"Ġconstructor":2014,"ID":2015,"ome":2016,"zA":2017,"Ġpalindrome":2018,"lot":2019,"ĠTABLE":2020,"ĠYork":2021,"YPE":2022,"]{":2023,"mith":2024,"other":2025,"Ġresponse":2026,"21":2027,"Calculate":2028,"ault":2029,"Ġactiv":2030,"Ġpresent":2031,"aries":2032,"ches":2033,"CREATE":2034,"XX":2035,"Ġtyp":2036,"Ġpivot":2037,"(),":2038,"Ġsome":2039,"Ġboolean":2040,"Ġallows":2041,"System":2042,"by":2043,"ves":2044,"ility":2045,"Ġlog":2046,"Int":2047,"Ġsingle":2048,"lice":2049,"sequence":2050,"ils":2051,"Ġhash":2052,"CTYPE":2053,"alidate":2054,"Ġ||":2055,"DOCTYPE":2056,"state":2057,"aly":2058,"ESC":2059,"Ġretrieve":2060,"Ġcity":2061,"Ġsystem":2062,"Ġdp":2063,"ĠEx":2064,"ĠâĢĺ":2065,"Time":2066,"bers":2067,"Ġpd":2068,"query":2069,"ĠDESC":2070,"column":2071,"ahren":2072,"<!":2073,"rit":2074,"Ġ13":2075,"loc":2076,"Ġprovided":2077,"mutations":2078,"AL":2079,"width":2080,"heit":2081,"Ġ19":2082,"unc":2083,"point":2084,"Qu":2085,"agram":2086,"longest":2087,"two":2088,"Ġlow":2089,"Ġ\";":2090,"Ġbelow":2091,"ĠDriver":2092,"Ġhel":2093,"ĠURL":2094,"Ġupdate":2095,"Ġlibr":2096,"Word":2097,"ulation":2098,"Ġ21":2099,"Ġ40":2100,"(\"%":2101,"Ġwebsite":2102,"Ġcomplexity":2103,"ahrenheit":2104,"'))":2105,"Item":2106,"OIN":2107,"iew":2108,"ule":2109,"use":2110,"{\"":2111,"Ġter":2112,"message":2113,"Ġ});":2114,"igh":2115,"ĠLo":2116,"ĠEmployees":2117,"Ġprev":2118,".\"":2119,"ales":2120,"Ġsk":2121,"Ġdigits":2122,"ĠSort":2123,"Ġletters":2124,"ĠĊĉĉ":2125,"salary":2126,"dio":2127,"Ġfields":2128,")-":2129,"eb":2130,"nect":2131,"ĠĊĠĠĠĠ":2132,"().":2133,"cribe":2134,"cont":2135,"Ġdict":2136,"Ġerror":2137,"Ġactivation":2138,"19":2139,"ded":2140,"Ġregex":2141,"Ġ24":2142,"ET":2143,"]))":2144,"older":2145,"requent":2146,"Ġsmallest":2147,"pri":2148,"chine":2149,"ptim":2150,"iginal":2151,"andas":2152,"valu":2153,"Ġ_":2154,"Ġafter":2155,"','":2156,"Ġcombin":2157,"...":2158,"freq":2159,"atus":2160,"ception":2161,"Ġcomput":2162,"ircle":2163,"(*)":2164,"ORDER":2165,"[:":2166,"score":2167,"ustomers":2168,"Ġnamespace":2169,"255":2170,"ert":2171,"Ġmachine":2172,"ople":2173,"respon":2174,"bug":2175,"iss":2176,"ject":2177,"tic":2178,"Ġnumpy":2179,"\":\"":2180,"Ġaccess":2181,"IMIT":2182,"Ġdepartment":2183,"Ġpairs":2184,".</":2185,"UT":2186,"vel":2187,"Ġ\\":2188,"Ġradius":2189,"terate":2190,"Ġmultiply":2191,"ension":2192,"EY":2193,"ms":2194,"Ġtry":2195,"Ġnet":2196,"until":2197,"ares":2198,"stdio":2199,"andom":2200,"ĠCheck":2201,"Ġdetect":2202,"Ġposs":2203,"Numbers":2204,"Ġtriangle":2205,"GROUP":2206,"double":2207,"vers":2208,"ĊĊ":2209,"Ġuntil":2210,"Ġ14":2211,"Ġvis":2212,"Ġvalidate":2213,"(){":2214,"Rewrite":2215,"Ġchecks":2216,"Ġarguments":2217,"ĠComp":2218,"Math":2219,"fit":2220,"upper":2221,"Ġ?":2222,"lease":2223,"learn":2224,"Ġlar":2225,"letter":2226,"asic":2227,"Ġattrib":2228,"::-":2229,"Ġanother":2230,"Ġvowels":2231,"ĠTable":2232,"ĠDate":2233,"Ċĉĉ":2234,"14":2235,"gle":2236,"eric":2237,"Ġdevelop":2238,"Ġpossible":2239,"[::-":2240,"values":2241,"Ġ]":2242,"Ġsent":2243,"alance":2244,"ĠSe":2245,"Ġsto":2246,"Ġseen":2247,"Ġless":2248,"ensor":2249,"mbda":2250,"rror":2251,"ape":2252,"tree":2253,"zed":2254,"Ġamount":2255,"Ġtup":2256,"lose":2257,"Ġwhat":2258,"Ġmedian":2259,"').":2260,"ĠGet":2261,"Ġpositive":2262,"Ġiterate":2263,"duce":2264,"Prime":2265,"obj":2266,"Ġno":2267,"load":2268,"ĠĊĊĠĠĠ":2269,"Ġcorrespon":2270,"\"}":2271,"ove":2272,"Ġresults":2273,"Ġlay":2274,"common":2275,"Describe":2276,"Ġmultiple":2277,"Build":2278,"iment":2279,"lem":2280,"Ġ23":2281,"Ġtake":2282,"username":2283,"Line":2284,"atures":2285,"Ġcent":2286,"ird":2287,"Ġjava":2288,"ĠID":2289,"ĠIterate":2290,"!/":2291,"AX":2292,"Str":2293,"``":2294,"world":2295,"dim":2296,"tails":2297,"<?":2298,"fa":2299,"Ġwithin":2300,"ask":2301,"Ġrequired":2302,"apitali":2303,"#!/":2304,"78":2305,"Ġaction":2306,"Ġsimple":2307,"Ġperson":2308,"Ġpower":2309,"ById":2310,"latten":2311,"'])":2312,":\",":2313,"uff":2314,"zy":2315,"Ġsample":2316,"ĠPerson":2317,"idx":2318,"Ġ-=":2319,"users":2320,"ĠMain":2321,"\").":2322,"Ġcompute":2323,"Ġwhose":2324,"Ġenter":2325,"Ġdetermine":2326,"Ġbrown":2327,"Ġcorresponding":2328,"({":2329,"64":2330,"Dense":2331,"Pa":2332,"Ġwork":2333,"Integer":2334,"Ġhere":2335,"Ġdisplays":2336,"Ġfox":2337,"Ġhandle":2338,"Email":2339,"Map":2340,"ful":2341,"Ġpe":2342,"Ġ<-":2343,"tered":2344,"ĠNum":2345,"Ġdefault":2346,"elsius":2347,"99":2348,"aut":2349,"inked":2350,"Ġav":2351,"Ġren":2352,"Ġrepe":2353,"ĊĠĊĠ":2354,"Ġgender":2355,"indow":2356,"nection":2357,"Ġparameter":2358,"lasses":2359,"randint":2360,"DE":2361,"Error":2362,"cor":2363,"holder":2364,"vector":2365,"Ġidentify":2366,"Ġdigit":2367,"ĠSet":2368,"Ġsklearn":2369,":]":2370,"[],":2371,"hi":2372,"rices":2373,"uby":2374,"ily":2375,"Ġque":2376,"Ġlinear":2377,"Ġoccurrences":2378,"Apple":2379,"Ġlibrary":2380,"FF":2381,"bash":2382,"fo":2383,"plot":2384,"Ġbasic":2385,"etch":2386,"contain":2387,"ĠEmployee":2388,"ĠInitialize":2389,"Ġdatetime":2390,"Object":2391,"ey":2392,"ie":2393,"Ġremo":2394,"ential":2395,"Ġ17":2396,"Ġcalcul":2397,"dog":2398,"ĠKEY":2399,"456":2400,"lt":2401,"ved":2402,"Ġ)":2403,"quares":2404,"very":2405,"ĠJOIN":2406,"Ġ1000":2407,"cket":2408,"getElement":2409,"Ġlike":2410,"uracy":2411,"Ġsmall":2412,".\")":2413,"output":2414,"})":2415,"orks":2416,"lex":2417,"ries":2418,"Ġjum":2419,"Ġnodes":2420,"izer":2421,"Ġdays":2422,"ensional":2423,".\"\"\"":2424,"Identify":2425,"flow":2426,"file":2427,"ĠĊĠĠĠĠĠĠĠĠ":2428,"remove":2429,"ero":2430,"ark":2431,"Ġred":2432,"Ġanagram":2433,"Ġbubble":2434,"Ġ22":2435,"==":2436,"ĠHello":2437,"itch":2438,"Ġduplicates":2439,"Ġ[];":2440,"Ġdog":2441,"Ġrecursive":2442,"span":2443,"Ġnetwork":2444,"?>":2445,"OP":2446,"ax":2447,"js":2448,"ose":2449,"ties":2450,"Ġscore":2451,"ctions":2452,"mylist":2453,"Ġpredict":2454,"uplicate":2455,"characters":2456,"oint":2457,"pdate":2458,"ual":2459,"valid":2460,"ertain":2461,"height":2462,"Ġsplit":2463,"Ġwas":2464,"Ġbest":2465,"Ġdefin":2466,"Ġspecified":2467,"Ġbooks":2468,"Ġpurpose":2469,"cd":2470,"Ġfast":2471,"Ġeas":2472,"Ġ28":2473,"odd":2474,"Ġ**":2475,"Cont":2476,"antity":2477,"32":2478,"Do":2479,"dle":2480,"float":2481,"Ġcertain":2482,"Ġblue":2483,"Ġ')":2484,"ments":2485,"Ġdirect":2486,"ĠRuby":2487,"Ġpermutations":2488,"scription":2489,"Ġserver":2490,"box":2491,"getElementById":2492,"!\");":2493,"UM":2494,"gre":2495,"largest":2496,"rt":2497,"ting":2498,"ĠĠĠĠĠ":2499,"Ġbu":2500,"tack":2501,"Ġ80":2502,"area":2503,"ĠEn":2504,"Ġassign":2505,"Ġinstance":2506,"unique":2507,"Ġborder":2508,"Ġ''.":2509,"ĠColumn":2510,"Ġoriginal":2511,"Ġparse":2512,"ARY":2513,"vice":2514,"Ġtraverse":2515,"king":2516,"target":2517,"yy":2518,"Ġca":2519,"Ġind":2520,"ĠApp":2521,"Ġdecimal":2522,"Code":2523,"ake":2524,"ken":2525,"no":2526,"Ġ@":2527,"reatest":2528,"Ġpass":2529,"reating":2530,"choice":2531,"ifier":2532,"Ġencry":2533,"Ġplaceholder":2534,"+=":2535,"Arr":2536,"vol":2537,"stack":2538,"Ġfile":2539,"Ġgro":2540,"Ġ('":2541,"Ġ45":2542,"Ġcollection":2543,"Ġmultiplication":2544,"layer":2545,"Ġerrors":2546,"ĠProgram":2547,"Ġlowercase":2548,"DB":2549,"pen":2550,"ware":2551,"grade":2552,"ĠAge":2553,"ĠĠĠĠĠĠĠĠĠĠĠĠĠĠĠĠ":2554,"Compute":2555,"Lo":2556,"late":2557,"Ġimp":2558,"mean":2559,"Ġevery":2560,"Ġvector":2561,"ĠTo":2562,"Ġexecut":2563,"!\")":2564,"16":2565,"RIM":2566,"True":2567,"duplicates":2568,"rea":2569,"orange":2570,"Ġpandas":2571,"lient":2572,"lag":2573,"chars":2574,"Ġtag":2575,"={":2576,"Th":2577,"ders":2578,"fore":2579,"not":2580,"pattern":2581,"orma":2582,"Ġfinds":2583,"Ġlazy":2584,"api":2585,"ango":2586,"plt":2587,"vie":2588,"cii":2589,"RIMARY":2590,"ormali":2591,"Tree":2592,"ac":2593,"object":2594,"ving":2595,"wise":2596,"Ġbody":2597,"any":2598,"Ġ(\"":2599,"Ġlong":2600,"ading":2601,"ĠWeb":2602,"parse":2603,"State":2604,"Ġsolution":2605,"Ġproperties":2606,"valuate":2607,"01":2608,";\">":2609,"digits":2610,"ĠĊĠĠĠĠĠĠ":2611,"rest":2612,"Ġim":2613,"lish":2614,"urse":2615,"ĊĠĊ":2616,"unct":2617,"Ġ'''":2618,"ĠData":2619,"\"))":2620,"check":2621,"Ġauthor":2622,"relu":2623,"Ġclasses":2624,"anner":2625,"Ġnegative":2626,"Ġsepar":2627,"response":2628,"\"><":2629,"Ġcounts":2630,"ather":2631,"Ġseries":2632,"Ġqueue":2633,"Jane":2634,"Ġpath":2635,"Ġoptim":2636,"ersion":2637,"Ġ};":2638,"ols":2639,"ĠPRIMARY":2640,"letters":2641,"pect":2642,"dictionary":2643,"Ġsizeof":2644,"Ġabout":2645,"Search":2646,"Set":2647,"top":2648,"Ġrev":2649,"Ġobj":2650,"Ġ($":2651,"ĠSmith":2652,"Ġproces":2653,"ift":2654,"iful":2655,"Ġdetails":2656,"Ġ${":2657,"pher":2658,"ongo":2659,"Ġuppercase":2660,"Ġtypes":2661,"autiful":2662,"Field":2663,"ME":2664,"ĠĠĊĠĠĠĠĠĠĠĠĠĠĠ":2665,"Ġcat":2666,"Ġthere":2667,"Ġspa":2668,"ities":2669,"thing":2670,"ages":2671,"Ġsubarray":2672,"Ġdescending":2673,"dimensional":2674,"Fibonacci":2675,"fibonacci":2676,"inct":2677,"chase":2678,"ĠPage":2679,"keys":2680,"phone":2681,"Ġshow":2682,"document":2683,"Ġexecute":2684,"Di":2685,"User":2686,"ek":2687,"âķ":2688,"Ġduplicate":2689,"ĠSw":2690,"eter":2691,"ends":2692,"ĠFind":2693,"asing":2694,"Ġdefine":2695,"Ġalgorithms":2696,"ĠCount":2697,"filter":2698,"LIMIT":2699,"post":2700,"inc":2701,"Ġaut":2702,"());":2703,"Ġheading":2704,"ABC":2705,"Ġcenter":2706,"Ġpeople":2707,"24":2708,"Python":2709,"View":2710,"click":2711,"with":2712,"Ġbold":2713,"ans":2714,"Ġgreatest":2715,"ely":2716,"names":2717,"Ġbegin":2718,"Read":2719,"ftware":2720,"Ġoperations":2721,"Ġsolve":2722,"Parse":2723,"Col":2724,"VG":2725,"Ġcreating":2726,"Ġpost":2727,"Ġjoin":2728,"istic":2729,"Ġinputs":2730,"Ġtemperature":2731,"Student":2732,"csv":2733,"55":2734,"90":2735,"Bob":2736,"Function":2737,"Key":2738,"car":2739,"frame":2740,"Ġurl":2741,"insert":2742,"Ġsco":2743,"three":2744,"Ġdiff":2745,"Ġ200":2746,"icks":2747,"Ġappear":2748,"Ġheap":2749,"Ġrequire":2750,"ategory":2751,"amount":2752,"bar":2753,"Ġund":2754,"ctionaries":2755,"arry":2756,"ĠCode":2757,"peed":2758,"ĠAND":2759,"Ġuses":2760,"Ġcontin":2761,"ĠXML":2762,"Ġdistance":2763,"Ġexisting":2764,"container":2765,"Please":2766,"We":2767,"back":2768,"tbody":2769,"std":2770,"Ġcapitali":2771,"child":2772,"Ġversion":2773,"Ġ34":2774,"ĠCalculate":2775,"rows":2776,"Ġdivide":2777,"Ġpoints":2778,"\\.[":2779,"Columns":2780,"issing":2781,"Ġattributes":2782,"Ġrender":2783,".*":2784,"=(":2785,"HTML":2786,"nav":2787,"Ġspace":2788,"Ġwrit":2789,"Ġcons":2790,"Ġclassify":2791,"Ġlabel":2792,"Ġstarting":2793,"ĢâĶĢâĶĢâĶĢâĶ":2794,"face":2795,"palindrome":2796,"Ġconcat":2797,"ĠAVG":2798,"Ġfinding":2799,"Ġkeyword":2800,"Ġstored":2801,"Ġbook":2802,"content":2803,"First":2804,"Two":2805,"eautiful":2806,"ood":2807,"ound":2808,"Ġ);":2809,"Ġcl":2810,"Ġflag":2811,"alf":2812,"ĊĠĠĠĠĠĠĠĠĠĠ":2813,"Ġ''":2814,"male":2815,"\"></":2816,"ĠHash":2817,"Def":2818,"ynam":2819,"Make":2820,"Ġmiddle":2821,"icksort":2822,"'d":2823,"18":2824,"erage":2825,"lib":2826,"second":2827,"inte":2828,"ilt":2829,"average":2830,"Ġchild":2831,"ascii":2832,"Ġtech":2833,"ĠMongo":2834,"weight":2835,"Ġsubt":2836,"Ġprimes":2837,"vious":2838,"iented":2839,"Ġstores":2840,")/":2841,"Soup":2842,"func":2843,"ler":2844,"thead":2845,"here":2846,"dec":2847,"Ġworks":2848,"Ġcountry":2849,"Ġ()":2850,"Ġ35":2851,"inder":2852,"ĊĠĠĠĠĠĠĠĠĠĠĠĠĠ":2853,"ccess":2854,"Ġcounter":2855,"ability":2856,"Ġcalculates":2857,"Ġusername":2858,"adding":2859,"ĠUs":2860,"Select":2861,"Ġmerged":2862,"sql":2863,"swer":2864,"priate":2865,"Ġsmaller":2866,"eautifulSoup":2867,"'}":2868,"Alice":2869,"Or":2870,"[[":2871,"ag":2872,"create":2873,"ues":2874,"quential":2875,"Ġbeen":2876,"ĠOr":2877,"Ġendl":2878,"ifference":2879,"Ġswitch":2880,"ÂłĠ":2881,"hens":2882,"export":2883,"Ġaccept":2884,"Ġapproach":2885,"unctu":2886,"OST":2887,"dis":2888,"ĠĠĠĠĠĠ":2889,"Ġnth":2890,"Ġ\"+":2891,"Ġthird":2892,")))":2893,"ĠHe":2894,"Ġdictionaries":2895,"Ġmatches":2896,"Ġperformance":2897,"Ġappropriate":2898,"Ġsentiment":2899,"${":2900,")+":2901,"23":2902,">();":2903,"NER":2904,"Update":2905,"bine":2906,"digit":2907,"diff":2908,"host":2909,"tf":2910,"Ġnon":2911,"Ġrel":2912,"Ġcopy":2913,"Ġrand":2914,"Reg":2915,"lask":2916,"character":2917,"Ġfeatures":2918,"ĠNumber":2919,"Ġgroup":2920,"Each":2921,"port":2922,"}</":2923,"rehens":2924,"ences":2925,"Ġeith":2926,"Ġthread":2927,"ĠSUM":2928,"Ġrot":2929,"Ġleast":2930,"ĠLinked":2931,"Ġlink":2932,"Ġeither":2933,"^[":2934,"Ġcircle":2935,"Ġfive":2936,"raw":2937,"strong":2938,"Ġanaly":2939,"mainder":2940,"Ġneural":2941,"ĠBeautifulSoup":2942,"location":2943,"*(":2944,"Frame":2945,"book":2946,"oci":2947,"pted":2948,"person":2949,"Ġinst":2950,"ank":2951,"Ġ26":2952,"Ġstor":2953,"Ġdebug":2954,"ĠMAX":2955,"Example":2956,"Ġspecial":2957,"Ġmany":2958,"KE":2959,"ls":2960,"atrix":2961,"oriented":2962,"loor":2963,"Ġcould":2964,"anager":2965,"'''":2966,"Ġassoci":2967,"Ġbuilt":2968,"rehension":2969,"60":2970,"80":2971,"Click":2972,"sta":2973,"Ġpadding":2974,"WriteLine":2975,"forEach":2976,"ĠLI":2977,"Ġsuper":2978,"Ġdesign":2979,"Charact":2980,"ruit":2981,"Ġvisited":2982,"Ġimpro":2983,"ĠMongoDB":2984,"'],":2985,"+--------":2986,"Area":2987,"Banana":2988,"Random":2989,"Ser":2990,"Upper":2991,"binary":2992,"floor":2993,"ipher":2994,"kes":2995,"lar":2996,"mar":2997,"multip":2998,"pth":2999,"path":3000,"Ġfact":3001,"Ġsq":3002,"Ġsim":3003,"Ġopen":3004,"urce":3005,"Ġ\"__":3006,"lambda":3007,"ĊĠĠĠĠĠĠĠĠĠĠĠĠĠĠĠĠĠĠĠĠ":3008,"'),":3009,"Ġcreated":3010,"Ġcomment":3011,"Component":3012,"ÂłÂł":3013,"ĠConsole":3014,"Ġconsist":3015,"-]+":3016,"Com":3017,"employees":3018,"Ġsquares":3019,"Ġevent":3020,"Ġ27":3021,"Ġgener":3022,"pping":3023,"Ġexception":3024,"Return":3025,"Ġadds":3026,"queue":3027,"Ġwebpage":3028,"Ġadj":3029,"ruits":3030,"Ġcomputer":3031,"correct":3032,"Ġjumps":3033,"Ġanagrams":3034,"<=":3035,"No":3036,"canner":3037,"gender":3038,"the":3039,"vies":3040,"inner":3041,"erate":3042,"Ġinitialize":3043,"dered":3044,"section":3045,"select":3046,"Ġcost":3047,"ulate":3048,"ĠFirst":3049,"__\":":3050,"Ġ123":3051,"ĠStreet":3052,"Compare":3053,"ĠAddition":3054,"ĠArrayList":3055,"Button":3056,"]#":3057,"author":3058,"atural":3059,"Ġfetch":3060,"ision":3061,"Ġconnection":3062,"ĠCustomers":3063,"ĠORDER":3064,"Ġ90":3065,"Ġcomprehension":3066,"Ġrate":3067,"Ġsuit":3068,"ized":3069,"Ġinsertion":3070,"Ġdistinct":3071,"Ġmarks":3072,"compile":3073,"Query":3074,"Ġlarge":3075,"(?":3076,",\"":3077,"EG":3078,"tom":3079,"Ġfour":3080,"Ġfrequent":3081,"Ġinit":3082,"Ġsp":3083,"Ġelem":3084,"Ġaddition":3085,"hell":3086,"ification":3087,"ready":3088,"cale":3089,"Ġenum":3090,"Format":3091,"ighb":3092,"Ġlayer":3093,"13":3094,"ging":3095,"ia":3096,"ok":3097,"Ġ,":3098,"ink":3099,"react":3100,"ond":3101,"ites":3102,"limit":3103,"rop":3104,"ross":3105,"Ġbut":3106,"Ġdynam":3107,"Ġgu":3108,"ped":3109,"cost":3110,"Ġ*/":3111,"--)":3112,"Ġ60":3113,"ĠObject":3114,"Ġcreates":3115,"Ġsorts":3116,"Ġbox":3117,"students":3118,"MENT":3119,"ĠAdditionally":3120,"IST":3121,"ODO":3122,"[\\":3123,"Ġflex":3124,"Ġrect":3125,"Ġmust":3126,"Ġexcept":3127,"Ġtables":3128,"Ġoutputs":3129,"except":3130,"Ġmylist":3131,"Ġ2020":3132,"view":3133,"Ġaccount":3134,"Ġmargin":3135,"Ġsomething":3136,"40":3137,"Al":3138,"YY":3139,"rinc":3140,"sm":3141,"Ġflatten":3142,"Ġsign":3143,"Ġbalance":3144,"Ġnumer":3145,"qual":3146,"oding":3147,"ĠBash":3148,"andard":3149,"ĠlastName":3150,"nique":3151,"Ġextends":3152,"Ġdivisor":3153,"Ġpointer":3154,"Ġmodule":3155,"ĠProduct":3156,"Ġpartic":3157,"Ġdirectory":3158,"ĠLIKE":3159,"rincip":3160,"Check":3161,"Min":3162,"One":3163,"TP":3164,"URL":3165,"jor":3166,"over":3167,"xy":3168,"xml":3169,"Ġtask":3170,"erry":3171,"Ġsy":3172,"Ġplayer":3173,"Ġ\"))":3174,"Ġgcd":3175,"Ġalert":3176,"ĠPoint":3177,"ĠCh":3178,"ĠCar":3179,"ĠTest":3180,"Ġbeing":3181,"most":3182,"ĠLast":3183,"Ġhex":3184,"2020":3185,"Ġabs":3186,"Ġrepeated":3187,"Ġconcaten":3188,"decimal":3189,">{":3190,"CD":3191,"Deter":3192,"Res":3193,"Trans":3194,"Un":3195,"her":3196,"ier":3197,"vant":3198,"org":3199,"util":3200,"Ġ\"\";":3201,"lists":3202,"terest":3203,"Ġquicksort":3204,"stead":3205,"Ġprevious":3206,"ours":3207,"ization":3208,"Ġzip":3209,"Ġprovides":3210,"reeting":3211,"Product":3212,"Ġpurchase":3213,"Ġhello":3214,"Ġtuple":3215,"unctuation":3216,"Te":3217,"[])":3218,"cation":3219,"frequency":3220,"high":3221,"ling":3222,"Ġra":3223,"sted":3224,"Ġnatural":3225,"Ġph":3226,"ĊĠĊĠĠĠĠĠĠĠ":3227,"defg":3228,"Ġ500":3229,"ottom":3230,"Ġsets":3231,"Ġparent":3232,"Ġyears":3233,"temperature":3234,"Ġmovie":3235,"sqrt":3236,"Ġpopulation":3237,"XXXX":3238,"Words":3239,"Ġavg":3240,"Ġindices":3241,"Define":3242,"!\";":3243,"%;":3244,"33":3245,"44":3246,"ai":3247,"cut":3248,"ĠĊĠĠĠĠĊĠĠĠ":3249,"ively":3250,"true":3251,"Ġjob":3252,"conn":3253,"--;":3254,"ĠMe":3255,"Replace":3256,"server":3257,"Ġlengths":3258,"toString":3259,"Ġmodels":3260,"ĠUser":3261,"param":3262,"Ġtags":3263,"âĶĤ":3264,"Ġdecla":3265,"ensorflow":3266,"Year":3267,"fib":3268,"fix":3269,"ĠĊĠĠĠĠĠĠĠĠĠ":3270,"status":3271,"Ġinvol":3272,"Ġshell":3273,"meta":3274,"Ġ\"$":3275,"roid":3276,"Ġedit":3277,"Ġmissing":3278,"ĠisPrime":3279,"Ġstatus":3280,"lications":3281,"Ġ>>":3282,"ĠON":3283,"pha":3284,"Ġmath":3285,"Ġsoftware":3286,"month":3287,"ĠInt":3288,"Ġ!==":3289,"Ġlimit":3290,"ecute":3291,"Ġcontents":3292,"CREMENT":3293,"Classify":3294,"Ġenumerate":3295,"Ġparticular":3296,"17":3297,"DATE":3298,"Month":3299,"Price":3300,"Palindrome":3301,"ee":3302,"generate":3303,"sample":3304,"zing":3305,"Ġam":3306,"alphabet":3307,"lob":3308,"Ġmult":3309,"irth":3310,"Ġcompar":3311,"Ġbetter":3312,"ference":3313,"Ġlarger":3314,"Ġexecuted":3315,"Car":3316,"Day":3317,"Gra":3318,"background":3319,"zz":3320,"enu":3321,"Ġnav":3322,"Ġsb":3323,"Ġpas":3324,"ording":3325,"ĠAUT":3326,"Ġ*=":3327,"culator":3328,"match":3329,"ĠRandom":3330,"INNER":3331,"INCREMENT":3332,"ched":3333,"Ġ``":3334,"mutation":3335,"ĠASC":3336,"ĠĊĠĠĠĠĠĠĊĠĠĠ":3337,"22":3338,"ered":3339,"vowels":3340,"Ġ;":3341,"Ġhttp":3342,"Ġ...":3343,"ern":3344,"Ġcar":3345,"Ġinstead":3346,"Ġsoup":3347,"Ġpri":3348,"Ġpie":3349,"rol":3350,"ival":3351,"=\"#":3352,"++.":3353,"align":3354,"myList":3355,"peri":3356,"cluding":3357,"Ġsource":3358,"ĠInteger":3359,"Ġlines":3360,"Ġaccording":3361,"Ġfiltered":3362,"Ġtraining":3363,"Password":3364,"ĠEng":3365,"Ġunder":3366,"Ġsubtract":3367,"Ġstoring":3368,"Determine":3369,"ĠAUTO":3370,"Cell":3371,"Orange":3372,"Phone":3373,"mn":3374,"Ġclose":3375,"Ġtoge":3376,"Ġwindow":3377,"Ġbuild":3378,"Ġcourse":3379,"Ġ'.":3380,"Ġ36":3381,"connect":3382,"Ġbefore":3383,"dia":3384,"Ġrule":3385,"shape":3386,"123456":3387,"Ġoccurrence":3388,"cause":3389,"link":3390,"Ġincreasing":3391,"products":3392,"Ġspaces":3393,"xyz":3394,"Ġtogether":3395,"All":3396,"EN":3397,"bout":3398,"ux":3399,"zation":3400,"}$":3401,"Ġens":3402,"Ġhttps":3403,"ins":3404,"Ġnormali":3405,"Ġ33":3406,"ilar":3407,"ĠJavascript":3408,"rency":3409,"Strings":3410,"ĠDe":3411,"Ġlevel":3412,"ĠfirstName":3413,"amily":3414,"props":3415,"Ġdocuments":3416,"Ġiteration":3417,"Ġencode":3418,"ĠReturns":3419,"ALU":3420,"Builder":3421,"stamp":3422,"Ġinitial":3423,"POST":3424,"\\/":3425,"]*":3426,"^\\":3427,"ele":3428,"jk":3429,"ud":3430,"xx":3431,"Ġtensorflow":3432,"Ġ\"<":3433,"Ġgre":3434,"Ġ((":3435,"ube":3436,"ader":3437,"ĠCelsius":3438,"Ġdescription":3439,"Ġbecause":3440,"ĠgetName":3441,"Ġweight":3442,"Ġheader":3443,"Ġselector":3444,"cience":3445,"Ġtrack":3446,"Ġproperty":3447,"Ġrunning":3448,"Ġexists":3449,"Dict":3450,"=$":3451,"Sentence":3452,"Smith":3453,"Test":3454,"employee":3455,"{'":3456,"Ġq":3457,"Ġfore":3458,"Ġreduce":3459,"Ġob":3460,"Ġdf":3461,"Ġgo":3462,"ĠStack":3463,"divis":3464,"Ġlambda":3465,"Ġsubmit":3466,"Ġendpoint":3467,"Ġapplications":3468,"Ġsuccess":3469,"curr":3470,"Ġmodified":3471,"ĠForm":3472,"Ġincrement":3473,"loads":3474,"Ġappears":3475,"ĠOrders":3476,"Character":3477,"ondon":3478,"28":3479,"Cur":3480,"SA":3481,"]|":3482,"pow":3483,"uzz":3484,"ward":3485,"Ĳâķ":3486,"ince":3487,"stract":3488,"xtract":3489,"engine":3490,"asks":3491,"Ġquantity":3492,"trics":3493,"Ġoperation":3494,"Ġfeature":3495,"Ġchanges":3496,"ĠĊĠĠĠĠĠĠĠĠĠĠĠĠĠĠĠĠĠĠĠĠ":3497,"ltk":3498,"ÂłĠÂłĠ":3499,"UpperCase":3500,"Ġsuitable":3501,"ivalent":3502,"TE":3503,"]}":3504,"difference":3505,"ggle":3506,"ki":3507,"sent":3508,"square":3509,"tup":3510,"udo":3511,"Ġclic":3512,"level":3513,"Ġincluding":3514,"Ġsales":3515,"Ġremain":3516,"rase":3517,"loop":3518,"Ġdown":3519,"Ġ',":3520,"ish":3521,"ĠPar":3522,"ĠFahrenheit":3523,"accuracy":3524,"oogle":3525,"Ġequivalent":3526,"Ġzero":3527,"Ġotherwise":3528,"Address":3529,"ĠExample":3530,"Regression":3531,"Ġassociated":3532,"Le":3533,"Last":3534,"WW":3535,"\\\\":3536,"acent":3537,"ron":3538,"rate":3539,"sis":3540,"Ġke":3541,"Ġclient":3542,"Ġfix":3543,"Ġinstr":3544,"Ġinside":3545,"Ġnltk":3546,"ume":3547,"Ġremainder":3548,"rid":3549,"Ġgame":3550,"Ġ++":3551,"Ġmaking":3552,"ouse":3553,"pair":3554,"Ġpredi":3555,"Debug":3556,"ĠMyClass":3557,"Elements":3558,"abcdefg":3559,"Analy":3560,"uffle":3561,"Ġimprove":3562,"innerHTML":3563,"\"];":3564,"PT":3565,"Sorted":3566,"Title":3567,"YZ":3568,"eps":3569,"fer":3570,"family":3571,"Ġact":3572,"Ġcipher":3573,"Ġident":3574,"Ġfinal":3575,"Ġold":3576,"ĊĠĠĠĠĠĠĠĠĊĠĠĠĠĠĠĠ":3577,"lable":3578,"Ġprinting":3579,"aving":3580,"Ġconcept":3581,"Ġconnect":3582,"ĠTree":3583,"Ġwhite":3584,"ĠIN":3585,"ĠMO":3586,"SER":3587,"Ġlocal":3588,"Reverse":3589,"ĠOutputs":3590,"Ġkn":3591,"Ġsupp":3592,"Ġunsorted":3593,"Ġmultipli":3594,"Ġmodify":3595,"Ġpartition":3596,"versal":3597,"Ġdevelopment":3598,"Ġtuples":3599,"Content":3600,"Ġencrypted":3601,"Ġwritten":3602,"Ġdynamic":3603,"'t":3604,"Div":3605,"GH":3606,"customers":3607,"frequent":3608,"gular":3609,"ired":3610,"way":3611,"ĠGenerate":3612,"hed":3613,"args":3614,"racket":3615,"secut":3616,"Ġbug":3617,"Ġmay":3618,"ĠCustomer":3619,"endl":3620,"ĠAl":3621,"distance":3622,"Ġloops":3623,"ooks":3624,"oolean":3625,"------":3626,"anagram":3627,"Ġcomponents":3628,"Ġdetermin":3629,"Heading":3630,"Ġtypically":3631,"EGER":3632,"Me":3633,"Per":3634,"foo":3635,"mber":3636,"wi":3637,"Ġcarry":3638,"Ġanswer":3639,"Ġback":3640,"mpt":3641,"ics":3642,"oday":3643,"make":3644,"Ġnested":3645,"ĠIP":3646,"Ġonclick":3647,"Ġadding":3648,"requencies":3649,"chema":3650,"firstName":3651,"predict":3652,"Form":3653,"linear":3654,"Ġhelp":3655,"ĠSwift":3656,"Order":3657,"Ġnavig":3658,")//":3659,".'''":3660,"=['":3661,"Hi":3662,"Obj":3663,"ba":3664,"john":3665,"lmn":3666,"heet":3667,"Ġinher":3668,"Ġnow":3669,"uter":3670,"Ġet":3671,"Ġdone":3672,"anum":3673,"ĊĠĠĠĠĠĠĠĠĊĠĠĠ":3674,"Ġ[-":3675,"Ġver":3676,"Ġalready":3677,"ĠCity":3678,"country":3679,"header":3680,"ĠBinary":3681,"phanum":3682,"ĠRE":3683,"ĠValue":3684,"position":3685,"Ġterms":3686,"ĠLoop":3687,"Ġavai":3688,"ĠWebsite":3689,"Color":3690,"Selector":3691,"Ġpassed":3692,"jklmn":3693,"70":3694,"CA":3695,"It":3696,"TTP":3697,"field":3698,"qr":3699,"wn":3700,"}\")":3701,"ators":3702,"Ġevaluate":3703,"ances":3704,"Ġ'';":3705,"cels":3706,"ellow":3707,"Ġview":3708,"ĠSum":3709,"ĠNo":3710,"Ġxml":3711,"mplete":3712,"Ġcompany":3713,"Ġ/*":3714,"Ġcombine":3715,"ĠStringBuilder":3716,"ING":3717,"Ġimportant":3718,"Ġregression":3719,"ĠINTEGER":3720,"Ġmove":3721,"Ġparts":3722,"lobal":3723,"Ġensure":3724,"secutive":3725,"celsius":3726,"!'":3727,"%';":3728,"=[":3729,"Employee":3730,"blue":3731,"close":3732,"mstrong":3733,"python":3734,"zer":3735,"zip":3736,"ĠĊĠĠĠĠĠĠĠĠĠĠĠĠĠĠĠĠĠĠĠ":3737,"instance":3738,"request":3739,"record":3740,"inter":3741,"Ġ'%":3742,"lack":3743,"Ġvari":3744,"Ġmakes":3745,"Ġ-->":3746,"Ġdataframe":3747,"ĠIS":3748,"ectangle":3749,"Ġcountries":3750,"parent":3751,"combin":3752,"Ġappend":3753,"ĠUn":3754,"Ġdates":3755,"128":3756,"group":3757,"Male":3758,"Ġacces":3759,"Ġabove":3760,"cessary":3761,"âĢĿ,":3762,"ĠĊĉĉĉ":3763,"Ġeasier":3764,"Ġprocessing":3765,"Ġadjacent":3766,"phanumeric":3767,"\"],":3768,"/>":3769,"Ad":3770,"Good":3771,"Lower":3772,"Type":3773,"Valid":3774,"XYZ":3775,"done":3776,"mer":3777,"Ġtasks":3778,"ats":3779,"Ġprices":3780,"Ġtoday":3781,"seq":3782,"ions":3783,"Ġcoding":3784,"Ġdb":3785,"ĠScanner":3786,"Ġstandard":3787,"illi":3788,"avor":3789,"Ġ42":3790,"iding":3791,"printf":3792,"ĠAr":3793,"LETE":3794,"ĠnewNode":3795,"token":3796,"mong":3797,"models":3798,"Ġabstract":3799,"expression":3800,"hijklmn":3801,"Ġscores":3802,"=\"#\">":3803,"ĲâķĲâķ":3804,"Ġremaining":3805,"qrst":3806,"(`":3807,"About":3808,"[$":3809,"]])":3810,"den":3811,"occur":3812,"tp":3813,"wxyz":3814,"ĠQu":3815,"Ġengine":3816,"Ġali":3817,"hem":3818,"Ġcell":3819,"Ġcelsius":3820,"Ġfoo":3821,"description":3822,"Ġpack":3823,"raction":3824,"Ġbar":3825,"listen":3826,"Ġartic":3827,"ordin":3828,"adam":3829,"Ġmap":3830,"verted":3831,"Ġquest":3832,"Ġbeh":3833,"Ġitself":3834,"Ġlocation":3835,"('/":3836,"Ġcannot":3837,"ĠLIMIT":3838,"parser":3839,"Ġtax":3840,"izz":3841,"calculate":3842,"Ġalphabets":3843,"Ġalphabetically":3844,"ĠArrays":3845,"querySelector":3846,"Ġcombinations":3847,"Ġattribute":3848,"Ġdevelopers":3849,"plotlib":3850,"35":3851,":\"":3852,"Average":3853,"EX":3854,"Even":3855,"GET":3856,"Home":3857,"Salary":3858,"balance":3859,"cing":3860,"down":3861,"elem":3862,"ire":3863,"uv":3864,"uary":3865,"}#":3866,"Ġax":3867,"rees":3868,"atch":3869,"ority":3870,"Ġfull":3871,"Ġsince":3872,"Ġplt":3873,"rap":3874,"local":3875,"ameters":3876,"change":3877,"Ġstar":3878,"ĠFlask":3879,"active":3880,"tag":3881,"ĠDef":3882,"Ġnotation":3883,"[][]":3884,"ĠĊĠĊĠĠĠ":3885,"Ġsubtree":3886,"Ġmatrices":3887,"encode":3888,"ĠInput":3889,"Ġdifferences":3890,"Ġlinks":3891,"days":3892,"Start":3893,"End":3894,"Ġaccuracy":3895,"cursor":3896,"DataFrame":3897,"Ġinterface":3898,"Ġsides":3899,"Ġalphabetical":3900,"Ġcalculating":3901,"Doe":3902,"Ġbeginning":3903,"integer":3904,"Ġinvolves":3905,"Ġavailable":3906,"hijklmnop":3907,"'},":3908,"(-":3909,"ELECT":3910,"Link":3911,"Matrix":3912,"None":3913,"aa":3914,"fect":3915,"mm":3916,"oice":3917,"ĠWrite":3918,"reg":3919,"heap":3920,"Ġpush":3921,"Ġoption":3922,"lid":3923,"alculator":3924,"Ġ\".":3925,"Ġoff":3926,"Ġbash":3927,"tep":3928,"ĠSELECT":3929,"Ġproject":3930,"ĠText":3931,"ĠTODO":3932,"ĠNew":3933,"dist":3934,"Ġexplain":3935,"ĠDep":3936,"Ġlook":3937,"Ġ70":3938,"INCT":3939,"Ġexecution":3940,"ventory":3941,"Ġretrie":3942,"Ġcapitalized":3943,"Ġanalysis":3944,"ISTINCT":3945,"Ġsymb":3946,"Ġclosest":3947,"Ġclicked":3948,"Ġinstru":3949,"qrstuv":3950,"hijklmnopqrstuv":3951,"1000":3952,"200":3953,"Book":3954,"Can":3955,"Fe":3956,"Let":3957,"With":3958,"]\"\"\"":3959,"action":3960,"bability":3961,"jango":3962,"lus":3963,"man":3964,"su":3965,"sales":3966,"vir":3967,"vices":3968,"yper":3969,"}`":3970,"ename":3971,"Ġprincip":3972,"roll":3973,"ced":3974,"Ġstep":3975,"Ġ400":3976,"ational":3977,"Ġhold":3978,"Ġhalf":3979,"Ġhaving":3980,"copy":3981,"ĠĊĊ":3982,"ĠĊĠĠĊĠ":3983,"ĠĊĠĠĊĠĠĠĠĠĠĠĠĠĠĠ":3984,"Ġ75":3985,"ĠBubble":3986,"Insert":3987,"sets":3988,"Ġsolid":3989,"Ġconverts":3990,"([[":3991,"essage":3992,"UPDATE":3993,"Ġproblems":3994,"Ġtransform":3995,"apital":3996,"789":3997,"DEF":3998,"Ġrotate":3999,"Ġgreen":4000,"SERT":4001,"02":4002,"Ar":4003,"AND":4004,"Java":4005,"QR":4006,"Score":4007,"each":4008,"elif":4009,"sv":4010,"trans":4011,"Ġport":4012,"Ġol":4013,"uring":4014,"rot":4015,"ropy":4016,"Ġbig":4017,"amel":4018,"anf":4019,"ris":4020,"cherry":4021,"ĠPost":4022,"Ġproduce":4023,"idden":4024,"Ġsec":4025,"Ġfollows":4026,"database":4027,"Incorrect":4028,"negative":4029,"ftmax":4030,"andle":4031,"ams":4032,"Listener":4033,"nextInt":4034,"Ġpermutation":4035,"ession":4036,"Ġequation":4037,"Compose":4038,"findall":4039,"Ġdepth":4040,"Ġcomplete":4041,"begin":4042,"ĠConvert":4043,"Ġmanage":4044,"Ġincludes":4045,"Ġfaster":4046,"ĠProgramming":4047,"Ġlonger":4048,"Ġcatch":4049,"Ġfactors":4050,"Ġpiece":4051,"Ġkeep":4052,"abcdefghijklmnopqrstuv":4053,"\"},":4054,")*(":4055,"27":4056,"36":4057,"<>();":4058,">\";":4059,"CE":4060,"Employees":4061,"From":4062,"Model":4063,"OR":4064,"Point":4065,"Sh":4066,"Su":4067,"Stack":4068,"adecimal":4069,"regex":4070,"onday":4071,"Ġcategory":4072,"Ġfill":4073,"des":4074,"Ġpy":4075,"lis":4076,"Ġ\"\\":4077,"Ġbs":4078,"ives":4079,"Ġ(!":4080,"defin":4081,"olve":4082,"Ġmaint":4083,"ĊĠĠĊĠĠĠĠĠĠĠ":4084,"ĠTitle":4085,"____":4086,"Ġneighb":4087,"ĠItem":4088,"Ġdel":4089,"Ġchars":4090,"Ġfollowed":4091,"Ġclassification":4092,"Ġonce":4093,"ĠWe":4094,"ĠMove":4095,"imeter":4096,"divid":4097,"pacity":4098,"Ġconstant":4099,"Ġmeaning":4100,"Ġvarchar":4101,"Ġmark":4102,"centage":4103,"filtered":4104,"Ġlogic":4105,"UTF":4106,"Ġstock":4107,"DELETE":4108,"Ġcalculator":4109,"Ġtechnique":4110,"ĠProducts":4111,"Ġnavigation":4112,"$/":4113,",-":4114,"-%":4115,".\");":4116,":%":4117,"DD":4118,"Gender":4119,"Ne":4120,"istr":4121,"pi":4122,"uce":4123,"Ġag":4124,"Ġframe":4125,"Ġfunc":4126,"Ġinterest":4127,"Ġindivid":4128,"itu":4129,"race":4130,"raverse":4131,"metic":4132,"route":4133,"ride":4134,"Ġthrow":4135,"Ġ29":4136,"ĠSalary":4137,"ithmetic":4138,"Ġsteps":4139,"avi":4140,"icle":4141,"Ġnecessary":4142,"---":4143,"Ġmetrics":4144,"execute":4145,"Ġmatplotlib":4146,"Country":4147,"Ġlastname":4148,"ĠVector":4149,"Ġrepresentation":4150,"primes":4151,"Ġentries":4152,"lastName":4153,"lines":4154,"positive":4155,"columns":4156,"contact":4157,"ĠSearch":4158,"Ġremoved":4159,"Ġseparate":4160,"ĠUsers":4161,"display":4162,"Ġsimilar":4163,"Ġdeclared":4164,"perience":4165,"Ġunderst":4166,"Ġinherit":4167,"LowerCase":4168,"avorite":4169,"viron":4170,"abcdefghijklmnopqrstuvwxyz":4171,"\"])":4172,"MM":4173,"PA":4174,"Val":4175,"Vector":4176,"cm":4177,"empty":4178,"ptr":4179,"rc":4180,"run":4181,"ym":4182,"}]":4183,"Ġut":4184,"ering":4185,"orm":4186,"Ġcities":4187,"Ġcube":4188,"Ġfruits":4189,"Ġos":4190,"alpha":4191,"seudo":4192,"ison":4193,"ĠSplit":4194,"=\"\">":4195,"ĠTh":4196,"(\"\\":4197,")),":4198,"ccup":4199,"achine":4200,"Ġ$(":4201,"Ġcompile":4202,"101":4203,"counts":4204,"Ġrating":4205,"Ġapply":4206,"collection":4207,"Exception":4208,"ĠINTO":4209,"Ġimplements":4210,"Ġmovies":4211,"Ġgrades":4212,"Ġadvant":4213,"Ġrecursion":4214,"Ġcombined":4215,"ABCDEF":4216,"Ġsql":4217,"Result":4218,"Ġetc":4219,"hematic":4220,"Ġindividual":4221,"(/":4222,"43":4223,"Linked":4224,"WE":4225,"bit":4226,"fi":4227,"mary":4228,"tes":4229,"ĠâĶĤ":4230,"Ġcard":4231,"Ġinitiali":4232,"iter":4233,"Ġref":4234,"Ġbracket":4235,"Ġ'*":4236,"Ġisinstance":4237,"quantity":4238,"Ġ31":4239,"ĠSer":4240,"Ġmade":4241,"=\"/":4242,"Ġselection":4243,"owel":4244,"ectors":4245,"open":4246,"],[":4247,"Ġcalc":4248,"Ġfirstname":4249,"ĠEmail":4250,"serif":4251,"Arrays":4252,"toLowerCase":4253,"indexOf":4254,"ĠreverseString":4255,"based":4256,"Ġperm":4257,"INSERT":4258,"Ġiterates":4259,"layout":4260,"mbers":4261,"firstname":4262,"Substring":4263,"Ġpatterns":4264,"Ġlabels":4265,"ĠLinkedList":4266,"ĠDefine":4267,"\"{":4268,"75":4269,"76":4270,"<<":4271,"City":4272,"Duplicates":4273,"Extract":4274,"II":4275,"JK":4276,"LM":4277,"Pos":4278,"So":4279,"WXYZ":4280,"ae":4281,"fig":4282,"factorial":4283,"mod":4284,"optim":4285,"Ġaw":4286,"ordered":4287,"Ġcm":4288,"arrange":4289,"Ġslow":4290,"Ġput":4291,"Ġreal":4292,"rod":4293,"ets":4294,"Ġconn":4295,"Ġconsecutive":4296,"direct":4297,"ister":4298,"Ġloss":4299,"ĠBase":4300,"ĠsetName":4301,"ĠLine":4302,"Ġcomma":4303,"Complete":4304,"toUpperCase":4305,"poch":4306,"Ġdisplaying":4307,"ĠStore":4308,"Ġseconds":4309,"show":4310,"Ġdeclar":4311,"ĠYou":4312,"Ġlanguages":4313,"Ġdesired":4314,"ĠAddress":4315,"Ġadded":4316,"Ġbrowser":4317,"Ġincrease":4318,"Ġdefined":4319,"Ġindic":4320,"pected":4321,"Ġcontinue":4322,"children":4323,"ĠHashMap":4324,"smallest":4325,"ALUES":4326,"Ġsupport":4327,"GHI":4328,"Ġunderstand":4329,"'];":4330,":])":4331,"<>":4332,"Ac":4333,"Take":4334,"USA":4335,"Yes":4336,"]\\":4337,"ass":4338,"bn":4339,"dir":4340,"eh":4341,"equal":4342,"fin":4343,"ili":4344,"nes":4345,"rev":4346,"street":4347,"ortest":4348,"Ġsans":4349,"Ġpseudo":4350,"Ġrece":4351,"ral":4352,"entropy":4353,"Ġgen":4354,"Ġlate":4355,"isplay":4356,"etri":4357,"omial":4358,"omain":4359,"ĠPandas":4360,"letion":4361,"Ġdeep":4362,"Ġclassifier":4363,"ĠĊĠĠĊĠĠ":4364,"ĠHTTP":4365,"Request":4366,"ĠBET":4367,"permutations":4368,"angular":4369,"Ġmathematic":4370,"----+--------":4371,"ĠReverse":4372,"Ġpages":4373,"Ġtimestamp":4374,"ĠRectangle":4375,"Ġkeras":4376,"ĠInsert":4377,"Ġexponent":4378,"Ġ:=":4379,"ffect":4380,"Ġstructures":4381,"Ġstarts":4382,"problem":4383,"lowercase":4384,"Ġswapp":4385,"uthors":4386,"Ġsubstrings":4387,"Ġtraversal":4388,"Ġcalls":4389,"ĠConstruct":4390,"Ġenviron":4391,"Ġchanged":4392,"ĠLog":4393,"Ġworking":4394,"ĠHelloWorld":4395,"Contact":4396,"Ġauto":4397,"Ġnumerical":4398,"Ġcomparison":4399,"Analyze":4400,"ccupation":4401,"WEEN":4402,"ĠBETWEEN":4403,"!--":4404,":',":4405,"Empty":4406,"Train":4407,"VWXYZ":4408,"bl":4409,"ool":4410,"txt":4411,"}\\":4412,"ĠĠĊĠ":4413,"Ġtk":4414,"original":4415,"arg":4416,"Ġsi":4417,"Ġscal":4418,"depth":4419,"median":4420,"round":4421,"Ġ{};":4422,"Ġ'-":4423,"Ġlang":4424,"ĠSub":4425,"avid":4426,"ĠCont":4427,"oder":4428,"ĠTrain":4429,"oter":4430,"Ġresour":4431,"cores":4432,"ĠDATE":4433,"Ġlogin":4434,"datetime":4435,"counter":4436,"Ġreverses":4437,"Depth":4438,"Ġstatements":4439,"rypt":4440,"Ġcontrol":4441,"pyplot":4442,"Compile":4443,"error":4444,"Ġmeans":4445,"abcabc":4446,"ĠStudents":4447,"Ġsentences":4448,"Ġdefinition":4449,"Common":4450,"illion":4451,"Ġbehavi":4452,"QRST":4453,"JKLM":4454,"ĠLinear":4455,"JKLMN":4456,"05":4457,"False":4458,"Over":4459,"Size":4460,"Tom":4461,"UVWXYZ":4462,"font":4463,"na":4464,"ny":4465,"now":4466,"then":4467,"ys":4468,"}'":4469,"ĊĊĠĠĠĠĠĠĠĠĠĠĠ":4470,"Ġable":4471,"leted":4472,"Ġspeed":4473,"Ġrepla":4474,"Ġwell":4475,"Ġmode":4476,"Ġbottom":4477,"Ġ'{":4478,"Ġ'',":4479,"olute":4480,"Ġ55":4481,"Ġ50000":4482,"ĠPrice":4483,"ĠTraverse":4484,"(\"*":4485,"resses":4486,"ĠWhen":4487,"Ġ65":4488,"enerator":4489,"ibility":4490,"Ġsubsequence":4491,"iles":4492,"Ġshare":4493,"NTH":4494,"Ġsearching":4495,"process":4496,"viation":4497,"comes":4498,"Sequential":4499,"Ġquickly":4500,"Ġinterpre":4501,"Ġmanip":4502,"Ġscra":4503,"Ġsystems":4504,"ĠExp":4505,"uppercase":4506,"ĠbubbleSort":4507,"OPQRST":4508,"green":4509,"Ġprocesses":4510,"ĠSwap":4511,"ĠCounter":4512,"Ġconcatenate":4513,"ĠEnglish":4514,"Ġalign":4515,"EXT":4516,"defined":4517,"GHIJKLMN":4518,"Ġenvironment":4519,"OPQRSTUVWXYZ":4520,"GHIJKLMNOPQRSTUVWXYZ":4521,")**":4522,"95":4523,":\\":4524,":\")":4525,">,":4526,"DI":4527,"Mary":4528,"Manager":4529,"Que":4530,"UB":4531,"Us":4532,"bye":4533,"dic":4534,"efficient":4535,"four":4536,"gment":4537,"half":4538,"mango":4539,"part":4540,"slice":4541,"ually":4542,"variable":4543,"}:":4544,"ĠĠĊĠĠĠĠĠĠĠĠĠĠĠĠĠĠĠ":4545,"inf":4546,"ination":4547,"repe":4548,"eratures":4549,"Ġfa":4550,"Ġfahrenheit":4551,"Ġfrequencies":4552,"Ġpi":4553,"Ġans":4554,"separ":4555,"Ġevalu":4556,"loud":4557,"Ġreturned":4558,"ano":4559,"Ġ'\\":4560,"tel":4561,"ety":4562,"Ġprobability":4563,"Ġproced":4564,"avg":4565,"Ġfunctional":4566,"ĠCol":4567,"ĠFinal":4568,"Ġhyper":4569,"++]":4570,"resh":4571,"ĠMo":4572,"ĠDi":4573,"ĠDISTINCT":4574,"softmax":4575,"])):":4576,"Ġweek":4577,"ency":4578,"ĠUse":4579,"Ġmultiples":4580,"Ġcontact":4581,"vised":4582,"Ġdecision":4583,"Ġrepresenting":4584,"Ġways":4585,"abcd":4586,"board":4587,"Ġintersection":4588,"Ġmonths":4589,"versing":4590,"Ġencrypt":4591,"Ġinstall":4592,"Ġconsists":4593,"rossentropy":4594,"Ġhexadecimal":4595,"Ġobtain":4596,"Ġknown":4597,"localhost":4598,"lished":4599,"ABCDEFGHIJKLMNOPQRSTUVWXYZ":4600,"Ġmathematical":4601,"26":4602,"85":4603,"Base":4604,"NN":4605,"af":4606,"capitali":4607,"fetch":4608,"reversed":4609,"Ġcategor":4610,"Ġthese":4611,"Ġfactor":4612,"Ġnone":4613,"Ġsay":4614,"Ġsure":4615,"als":4616,"algorithm":4617,"Ġthose":4618,"Ġprompt":4619,"ĠCa":4620,"ĠCircle":4621,"untime":4622,"Ġhours":4623,"ĠjQuery":4624,"Ġsear":4625,"Ġcharset":4626,"phant":4627,"ĠmyList":4628,"Ġminutes":4629,"ĠThey":4630,"Ġservice":4631,"Provide":4632,"âĢĻ,":4633,"hentic":4634,"Ġcallback":4635,"lastname":4636,"Ġscanf":4637,"Ġtranspose":4638,"population":4639,"points":4640,"Ġlowest":4641,"ĠSequential":4642,"nolog":4643,"Three":4644,"pective":4645,"Ġcapitalize":4646,"Ġclust":4647,"Ġguess":4648,"Ġrectangle":4649,"Ġabsolute":4650,"Ġpurchased":4651,"Ġphrase":4652,"Grade":4653,"Ġaccessed":4654,"Ġarticle":4655,"lusive":4656,"optimizer":4657,".'":4658,"Customer":4659,"Event":4660,"Flow":4661,"IG":4662,"ION":4663,"JAX":4664,"Monday":4665,"On":4666,"Person":4667,"VAL":4668,"category":4669,"crossentropy":4670,"em":4671,"five":4672,"fahrenheit":4673,"ian":4674,"nn":4675,"net":4676,"spec":4677,"squares":4678,"tn":4679,"ttp":4680,"ula":4681,"uous":4682,"yles":4683,"ĠZ":4684,"ĠĠĠĠĊĠĠĠ":4685,"Ġfruit":4686,"umps":4687,"dep":4688,"Ġpunctuation":4689,"ramid":4690,"light":4691,"Ġtoken":4692,"alaries":4693,"selection":4694,"Ġ<!--":4695,"Ġnumeric":4696,"ĠTensor":4697,"ĠTEXT":4698,"mag":4699,"ĠAs":4700,"Ġdeleted":4701,"Ġstrlen":4702,"Ġmet":4703,"Ġmembers":4704,"vec":4705,"Ġexperience":4706,"ĠMax":4707,"Ġorg":4708,"ĠgetAge":4709,"math":4710,"Ġruntime":4711,"berry":4712,"Ġshuffle":4713,"cols":4714,"ĠRes":4715,"Ġexpress":4716,"Ġunit":4717,"reater":4718,"ĠGROUP":4719,"Ġemails":4720,"Second":4721,"Ġgraph":4722,"ĠCountry":4723,"Ġoccurs":4724,"sqli":4725,"Ġplaced":4726,"Ġlibraries":4727,"Ġtermin":4728,"Ġlayout":4729,"uffer":4730,"Ġremoving":4731,"istics":4732,"Ġclone":4733,"ĊĠĠĠĠĠĠĠĠĠĠĠĠĠĠĠĠĠĠĠĠĠĠĠ":4734,"Ġadditional":4735,"itespace":4736,"Ġsuccessful":4737,"Ġpredictions":4738,"ĠMONTH":4739,"ĠDepartment":4740,"amelCase":4741,"Ġmaintain":4742,"Ġlatest":4743,"etrieve":4744,"ĠLogistic":4745,"ĠTensorFlow":4746,"!')":4747,"!\".":4748,"34":4749,"42":4750,"77":4751,"As":4752,"Activ":4753,"Largest":4754,"London":4755,"Red":4756,"]?":4757,"^(":4758,"ait":4759,"eded":4760,"fact":4761,"iou":4762,"lan":4763,"ox":4764,"pes":4765,"spa":4766,"scale":4767,"}\\.[":4768,"ĊĊĠĠ":4769,"Ġten":4770,"rection":4771,"Ġcla":4772,"Ġcapital":4773,"ings":4774,"Ġown":4775,"urs":4776,"Ġele":4777,"isPrime":4778,"olume":4779,"Ġalphanumeric":4780,"Ġmajor":4781,"igmo":4782,"ighest":4783,"term":4784,"people":4785,"Ġhost":4786,"Ġdest":4787,"ĊĠĠĠĠĠĠĠĠĠĠĠĠĠĠ":4788,"ressed":4789,"ĠMake":4790,"ĠMatrix":4791,"img":4792,"('');":4793,"ERVAL":4794,"myString":4795,"pack":4796,"Ġshape":4797,"player":4798,"Ġperfect":4799,"Dec":4800,"includes":4801,"ĠVALUES":4802,"Ġoperators":4803,"Ġbool":4804,"Ġtitles":4805,"Ġhandling":4806,"Program":4807,"prev":4808,"Ġneeds":4809,"Ġrecursively":4810,"Ġparagraphs":4811,"posit":4812,"Ġjumped":4813,"volution":4814,"Ġoptimization":4815,"Returns":4816,"Ġraise":4817,"Ġencoded":4818,"Letter":4819,"transform":4820,"aeiou":4821,"igmoid":4822,"\"};":4823,"$%":4824,"-\\":4825,"/*":4826,"98":4827,"BN":4828,"Mar":4829,"Not":4830,"Option":4831,"Pool":4832,"Web":4833,"Za":4834,"ds":4835,"ech":4836,"fc":4837,"fruit":4838,"has":4839,"handle":4840,"nth":4841,"nary":4842,"tra":4843,"zero":4844,"ĠĠĊĠĠ":4845,"Ġaux":4846,"Ġauthors":4847,"erm":4848,"hex":4849,"ater":4850,"atur":4851,"Ġip":4852,"Ġfin":4853,"Ġsend":4854,"device":4855,"lig":4856,"Ġmillion":4857,"Ġ'')":4858,"riangle":4859,"Ġ2000":4860,"Ġ[(":4861,"major":4862,"Ġchoice":4863,"Ġrespon":4864,"Ġrespective":4865,"ednes":4866,"\"\"\"\"":4867,"ĠDE":4868,"Ġload":4869,"ĠOn":4870,"ĠBook":4871,"ayment":4872,"Ġcollect":4873,"perty":4874,"Ġrandomly":4875,"textarea":4876,"unday":4877,"Ġgenerates":4878,"ĠUsing":4879,"ĠUpdate":4880,"Ġvalidation":4881,"Ġallowing":4882,"Ġconditions":4883,"duces":4884,"Ġefficiently":4885,"Ġruns":4886,"Ġternary":4887,"Ġcombination":4888,"7890":4889,"ĠĊĠĠĠĠĠĠĠĠĠĠĊĠĠĠĠĠĠĠ":4890,"Ġspam":4891,"uesday":4892,"limiter":4893,"Ġforeach":4894,"Ġquestion":4895,"ĠFinally":4896,"Ġorgan":4897,")}":4898,"+\"":4899,"56":4900,":\");":4901,"@#":4902,"Bar":4903,"Buzz":4904,"NA":4905,"Values":4906,"birth":4907,"fruits":4908,"google":4909,"mt":4910,"ng":4911,"private":4912,"sl":4913,"send":4914,"window":4915,"works":4916,"Ġtr":4917,"orch":4918,"Ġflask":4919,"Ġinner":4920,"Ġsrc":4921,"Ġpol":4922,"Ġrea":4923,"Ġreco":4924,"Ġwr":4925,"Ġepoch":4926,"une":4927,"Ġ'/":4928,"Ġ'<":4929,"ĠisPalindrome":4930,"Ġglobal":4931,"Ġvectors":4932,"puts":4933,"adow":4934,"()\">":4935,"Ġ--":4936,"Ġneeded":4937,"opy":4938,"Ġmeas":4939,"Ġresulting":4940,"SET":4941,"ĠinputString":4942,"Ġaddresses":4943,"Ġages":4944,"Ġcols":4945,"Ġcolors":4946,"Invalid":4947,"weather":4948,"ĠEach":4949,"abs":4950,"reduce":4951,"Ġshortest":4952,"rown":4953,"Ġgenerated":4954,"program":4955,"ĠStates":4956,"256":4957,"Ġtesting":4958,"obby":4959,"ĠINTERVAL":4960,"creen":4961,"âĢĿ.":4962,"mutable":4963,"Ġrequires":4964,"Ġimplementation":4965,"Ġreads":4966,"ĠAnimal":4967,"ĠAngular":4968,"Paragraph":4969,"riter":4970,"ĠComponent":4971,"yyyy":4972,"Ġchildren":4973,"marks":4974,"(?:":4975,"United":4976,"123456789":4977,"Ġweights":4978,"Ġmultiplied":4979,"wiki":4980,"ordinates":4981,"racecar":4982,"Ġinheritance":4983,"ĠLogisticRegression":4984,"37":4985,"Binary":4986,"Jack":4987,"Pre":4988,"\\\"":4989,"iod":4990,"java":4991,"punctuation":4992,"soup":4993,"sigmoid":4994,"tle":4995,"uc":4996,"vo":4997,"vas":4998,"info":4999,"Ġamong":5000,"Ġtmp":5001,"eros":5002,"orse":5003,"Ġpow":5004,"Ġour":5005,"med":5006,"Ġwant":5007,"ames":5008,"Ġdomain":5009,"mperature":5010,"Ġ37":5011,"Ġstat":5012,"eta":5013,"ĠCall":5014,"Ġhum":5015,"))]":5016,"istory":5017,"ĠDouble":5018,"Remove":5019,"Ġordered":5020,"Instance":5021,"Ġleap":5022,"Ġcurs":5023,"Ġcomments":5024,"ĠET":5025,"abb":5026,"Ġsubset":5027,"ĠmyArray":5028,"Ġmysql":5029,"Ġparsed":5030,"ĠReg":5031,"Ġkth":5032,"ĠUS":5033,"ĠĠĠĠĠĠĠĠĠĠ":5034,"Ġuseful":5035,"Ġ255":5036,"ĠbinarySearch":5037,"Ġformula":5038,"Ġdivision":5039,"Ġdivisors":5040,"12345":5041,"Ġentered":5042,"Ġencoding":5043,"Ġremoves":5044,"Ġeasy":5045,"Ġwriting":5046,"Ġinstructions":5047,"istration":5048,"itude":5049,"anoi":5050,"ednesday":5051,"!');":5052,"0123456789":5053,"Fahrenheit":5054,"Get":5055,"IS":5056,"Odd":5057,"Page":5058,"Player":5059,"Split":5060,"Speed":5061,"Vowels":5062,"]/":5063,"cle":5064,"game":5065,"ike":5066,"language":5067,"uran":5068,"vis":5069,"wd":5070,"Ġcin":5071,"Ġfavorite":5072,"Ġinfin":5073,"Ġrelease":5074,"strip":5075,"urchase":5076,"Ġ\"\",":5077,"Ġoften":5078,"ints":5079,"Ġbit":5080,"Ġblog":5081,"animal":5082,"anuary":5083,"Ġ'{\"":5084,"esar":5085,"teen":5086,"ĠĊĠĠĠĊĠĠĠ":5087,"ĠSh":5088,"Ġcontext":5089,"Ġ101":5090,"ĠType":5091,"Ġchr":5092,"Ġyield":5093,"ĠNe":5094,"course":5095,"Ġprogrammer":5096,"Ġchart":5097,"':'":5098,"ĠfindMax":5099,"Ġ85":5100,"ĠModel":5101,"ĠBy":5102,"ĠBoolean":5103,"Ġsetting":5104,"web":5105,"aps":5106,"comm":5107,"Ġtemplate":5108,"ĠThen":5109,"Ġshort":5110,"Ġprevent":5111,"Child":5112,"sizeof":5113,"Ġzeros":5114,"Ġcommonly":5115,"âĶĢâĶĢâĶĢâĶĢâĶ":5116,"Ġpointers":5117,"Ġ{}\".":5118,"ĠreversedString":5119,"\\.,":5120,"bool":5121,"Ġpositions":5122,"ĠListNode":5123,"DateTime":5124,"Counter":5125,"Ġcorrectly":5126,"```":5127,"Pair":5128,"grees":5129,"Ġcollections":5130,"foreach":5131,"Ġimage":5132,"Ġautom":5133,"ĠHashSet":5134,"Ġsqrt":5135,"Ġmulti":5136,"Current":5137,"tuple":5138,"ĠValueError":5139,"ehicle":5140,"problems":5141,"Ġresources":5142,"ursday":5143,"Ġcursor":5144,"\"/>":5145,"(\\":5146,")*":5147,"29":5148,"31":5149,">=":5150,"AV":5151,"API":5152,"Hash":5153,"Lab":5154,"Ro":5155,"UR":5156,"Your":5157,"cast":5158,"given":5159,"ipp":5160,"mark":5161,"np":5162,"oe":5163,"ple":5164,"pus":5165,"rating":5166,"uses":5167,"ĠĠĊ":5168,"Ġtwe":5169,"Ġtrees":5170,"stream":5171,"ons":5172,"ones":5173,"less":5174,"leep":5175,"arah":5176,"del":5177,"details":5178,"Ġtoggle":5179,"strib":5180,"Ġanimal":5181,"Ġest":5182,"loss":5183,"unic":5184,"Ġmenu":5185,"Ġblack":5186,"ived":5187,"Ġarithmetic":5188,"Ġgreeting":5189,"orders":5190,"quick":5191,"Ġvolume":5192,"ĠSales":5193,"oman":5194,"ilent":5195,"Ġconverted":5196,"Ġsums":5197,"Ġteam":5198,"ĠmaxValue":5199,"Ġ//=":5200,"ĠMark":5201,"ĠDes":5202,"('.":5203,"ayes":5204,"oney":5205,"Connection":5206,"Ġ/=":5207,"update":5208,"about":5209,"Ġchecking":5210,"Ġexplo":5211,"Ġunordered":5212,"Ġprefix":5213,"ĠGra":5214,"veloper":5215,"Ġbound":5216,"Ġservices":5217,"Ġwhereas":5218,"mbed":5219,"Ġdepending":5220,"Ġhandler":5221,"Ġmov":5222,"Anagram":5223,"Classifier":5224,"Ġenable":5225,"ĠAnd":5226,"Ġhigher":5227,"Items":5228,"ĠLoad":5229,"ĠCompare":5230,"Ċĉĉĉ":5231,"Ġcapacity":5232,"Ġexecuting":5233,"Ġimmutable":5234,"Ġseparator":5235,"Ġscope":5236,"Ġaccepts":5237,"Server":5238,"Translate":5239,"Ġnormalize":5240,"divisible":5241,"Currency":5242,"ĠParameters":5243,"Ġdetermines":5244,"ĠArmstrong":5245,"occurrences":5246,"Ġpackage":5247,"Ġsymbols":5248,"Account":5249,"Override":5250,"Ġclause":5251,"._":5252,"48":5253,"66":5254,":<":5255,";:\\":5256,"Difference":5257,"David":5258,"Equal":5259,"IP":5260,"JSON":5261,"JOIN":5262,"Today":5263,"\\-":5264,"^<>":5265,"bre":5266,"books":5267,"eight":5268,"event":5269,"gb":5270,"mode":5271,"pred":5272,"power":5273,"pivot":5274,"incre":5275,"orage":5276,"Ġcirc":5277,"umference":5278,"dev":5279,"urses":5280,"Ġbirth":5281,"Ġdue":5282,"ivers":5283,"Ġ');":5284,"Ġ300":5285,"eting":5286,"ĠPer":5287,"ada":5288,"adth":5289,"Ġ44":5290,"endar":5291,"(\"/":5292,"Ġhard":5293,"Ġyellow":5294,"ĠAJAX":5295,"Ġasse":5296,"ĠmaxNum":5297,"imate":5298,"ĠHow":5299,"Ġ78":5300,"Ġroll":5301,"Ġcomputes":5302,"Ġlooping":5303,"oose":5304,"ĠmyString":5305,"Ġtemperatures":5306,"Ġ2021":5307,"ĠReplace":5308,"ĠGCD":5309,"Ġconverting":5310,"Ġbreadth":5311,"catch":5312,"radio":5313,"Ġseriali":5314,"cret":5315,"Ġrepresented":5316,"And":5317,"Ġreadable":5318,"linked":5319,"ĠphoneNumber":5320,"switch":5321,"version":5322,"Ġeasily":5323,"Loop":5324,"Ġoptimize":5325,"Username":5326,"âķĳ":5327,"rawberry":5328,"multiply":5329,"Ġconsisting":5330,"Ġguide":5331,"Transform":5332,"ernal":5333,"ĠAlgorithm":5334,"Ġvarious":5335,"combined":5336,"Adam":5337,"\\.,;:\\":5338,"^<>()":5339,"\"?>":5340,"&*":5341,"'\\":5342,"'):":5343,"-.":5344,"AC":5345,"AY":5346,"EAR":5347,"Freq":5348,"HE":5349,"Harry":5350,"Path":5351,"Retrieve":5352,"Scanner":5353,"Tuesday":5354,"Variable":5355,"]):":5356,"aw":5357,"far":5358,"fill":5359,"flatten":5360,"href":5361,"io":5362,"ky":5363,"oun":5364,"plet":5365,"silent":5366,"ts":5367,"tw":5368,"uali":5369,"ĠQ":5370,"ĠĠĠĊĠĠĠ":5371,"ster":5372,"orn":5373,"Ġche":5374,"Ġsave":5375,"Ġscreen":5376,"Ġrest":5377,"Ġoct":5378,"utf":5379,"Ġ\"\".":5380,"Ġeffect":5381,"Ġmut":5382,"Ġdim":5383,"Ġdrop":5384,"Ġ})":5385,"isalpha":5386,"ubly":5387,"ĠPop":5388,"Ġ47":5389,"endent":5390,"oper":5391,"Ġexit":5392,"ĠMerge":5393,"ĠDec":5394,"ĠDense":5395,"ĠDjango":5396,"Ġlove":5397,"acher":5398,"arrays":5399,"Ġ97":5400,"cessing":5401,"Ġcompil":5402,"')]":5403,"arest":5404,"series":5405,"redit":5406,"Ġstates":5407,"condition":5408,"ĠĠĠĠĠĠĠĠĠĠĠ":5409,"ĠlongestWord":5410,"ĠGET":5411,"triangle":5412,"ĠStart":5413,"ĠĊĉĊ":5414,"Ġboard":5415,"extend":5416,"ificial":5417,"ĠquickSort":5418,"Produce":5419,"Ġmember":5420,"Ġcompared":5421,"Ġscanner":5422,"links":5423,"center":5424,"Ġpopular":5425,"Ġhelps":5426,"Ġterm":5427,"FFFF":5428,"contains":5429,"ĠĊĠĠĠĠĠĠĠĠĠĠ":5430,"Ġauthentic":5431,"Reader":5432,"ĠHere":5433,"Ġthreads":5434,"Ġdebugging":5435,"viewport":5436,"ĠEngine":5437,"elephant":5438,"WWWW":5439,"ways":5440,"ĠQuick":5441,"JavaScript":5442,"Users":5443,"separated":5444,"Ġdestination":5445,"volutional":5446,"Pooling":5447,"aturday":5448,"Ġwrong":5449,"Ġepochs":5450,"âĶĢâĶĢâĶĢâĶĢâĶĢâĶĢâĶĢâĶĢâĶ":5451,"\"\\":5452,"'m":5453,"'][":5454,".\";":5455,"97":5456,"@[":5457,"Client":5458,"FO":5459,"GCD":5460,"Multip":5461,"Message":5462,"Total":5463,"TODO":5464,"Wednesday":5465,"bubble":5466,"dp":5467,"false":5468,"gh":5469,"si":5470,"scores":5471,"today":5472,"ulo":5473,"ules":5474,"}\"":5475,"}.":5476,"}\".":5477,"rel":5478,"heses":5479,"Ġclean":5480,"Ġfit":5481,"Ġfun":5482,"Ġschema":5483,"Ġpub":5484,"Ġreference":5485,"unsorted":5486,"riday":5487,"ĠisValid":5488,"Ġgive":5489,"ques":5490,"ĠSimple":5491,"ĠSET":5492,"ĠPa":5493,"Ġprov":5494,"ĠCur":5495,"ĠCom":5496,"ĠCalculator":5497,"ifies":5498,"ĠJane":5499,"romise":5500,"ĠTime":5501,"crib":5502,"ĠAd":5503,"Ġwhy":5504,"++?":5505,"ĠĊĊĠĠĠĠĠĠĠ":5506,"heading":5507,"ĠWord":5508,"Ġ64":5509,"Ġnews":5510,"ĠDisplay":5511,"Ġloo":5512,"Ġround":5513,"ĠgetMax":5514,"dataset":5515,"Ġbytes":5516,"Ġcompound":5517,"Ġdistrib":5518,"ĠsetAge":5519,"Conv":5520,"ĠLear":5521,"ĠElement":5522,"Ġweather":5523,"Ġsublist":5524,"Ġtempor":5525,"Ġ2019":5526,"iled":5527,"tools":5528,"Ġdisk":5529,"\"]+":5530,"substr":5531,"ĠĠĠĠĠĠĠĠĠ":5532,"Ġselecting":5533,"doc":5534,"doe":5535,"Ġexternal":5536,"radient":5537,"Ġrepresents":5538,"Ġentry":5539,"Ġperforms":5540,"âĢĻ.":5541,"predi":5542,"Ġreplaced":5543,"Ġmanner":5544,"filename":5545,"ĠĊĠĠĠĠĠĠĠĠĠĠĠĠĠ":5546,"Ġfibo":5547,"ĠException":5548,"Ġcomputing":5549,"Ġlayers":5550,"axis":5551,"ĠApple":5552,"ormalize":5553,"ĠDataFrame":5554,"ĠUsage":5555,"ĠASCII":5556,"Perform":5557,"ĠREST":5558,"Goodbye":5559,"Ġoptions":5560,"Supp":5561,"Vectorizer":5562,"Ġadvantages":5563,"LinkedList":5564,"Ġputs":5565,"Ġpseudocode":5566,"Ġbehavior":5567,"efficients":5568,"factors":5569,"Ġmeasure":5570,"Ġinfinite":5571,"AVING":5572,")[":5573,"-|":5574,"Ass":5575,"Author":5576,"Digits":5577,"Fix":5578,"MO":5579,"ORL":5580,"Py":5581,"Sm":5582,"Sunday":5583,"`.":5584,"bc":5585,"ball":5586,"cin":5587,"gers":5588,"kit":5589,"sc":5590,"speed":5591,"uch":5592,"vin":5593,"writ":5594,"xsl":5595,"}-\\":5596,"ĊĊĠĠĠĠĠ":5597,"Ġrom":5598,"ina":5599,"inomial":5600,"Ġavoid":5601,"Ġaround":5602,"orp":5603,"ĊĠĠĠĊĠĠĠ":5604,"Ġfew":5605,"Ġinc":5606,"Ġindent":5607,"Ġsat":5608,"Ġsur":5609,"dest":5610,"lia":5611,"alert":5612,"sect":5613,"Ġwor":5614,"Ġmiles":5615,"Ġbits":5616,"Ġ{{":5617,"Ġart":5618,"Ġiss":5619,"Ġ[{'":5620,"Ġgreet":5621,"Ġgrid":5622,"Ġ39":5623,"ĠScience":5624,"ĠStep":5625,"Ġstop":5626,"Ġ56":5627,"ĠClass":5628,"ider":5629,"pedia":5630,"ĠAI":5631,"Ġjust":5632,"Ġdegrees":5633,"ĠmaxLength":5634,"ĠĊĊĉ":5635,"ĠMap":5636,"ĠMultip":5637,"imation":5638,"There":5639,"('').":5640,"Ġorange":5641,"ĠBig":5642,"ĠaddTwo":5643,"tegers":5644,"Ġcompo":5645,"Ġcompletion":5646,"Console":5647,"Ġtaking":5648,"ups":5649,"Nums":5650,"female":5651,"chool":5652,"LLO":5653,"Ġtail":5654,"izing":5655,"Storage":5656,"Ġiterations":5657,"ĠYour":5658,"ĠYEAR":5659,"Ġfilled":5660,"mbly":5661,"Ġplaces":5662,"]+$":5663,"Chars":5664,"Maximum":5665,"ategorical":5666,"Ġpowerful":5667,"greSQL":5668,"account":5669,"Ġsubarrays":5670,"Ġheapify":5671,"ĠOrder":5672,"XXXXXXXX":5673,"ĠMethod":5674,"Ġmultiplies":5675,"records":5676,"Ġstars":5677,"Ġolle":5678,"ĠPostgreSQL":5679,"Ġagain":5680,"<<\"":5681,"Ġgenre":5682,"Ġsimp":5683,"ĠLinearRegression":5684,"tellig":5685,"Ġprocedure":5686,"EventListener":5687,"$%^":5688,"ĠDEC":5689,"Ġrecogn":5690,"ĠAndroid":5691,"(',":5692,")?":5693,"06":5694,":-":5695,"Dist":5696,"END":5697,"Fill":5698,"Flatten":5699,"GPT":5700,"Is":5701,"Mo":5702,"OM":5703,"Spec":5704,"Sales":5705,"SUB":5706,"Ut":5707,"bird":5708,"drop":5709,"ict":5710,"kens":5711,"mi":5712,"mation":5713,"null":5714,"ogram":5715,"ring":5716,"uess":5717,"Ġâ":5718,"Ġ];":5719,"Ġtorch":5720,"store":5721,"Ġclo":5722,"Ġcsv":5723,"Ġsalaries":5724,"itor":5725,"Ġpot":5726,"Ġplot":5727,"strpt":5728,"ged":5729,"Ġ\"*":5730,"Ġcoordinates":5731,"chron":5732,"isdigit":5733,"Ġ3000":5734,"Ġalloc":5735,"ĠPre":5736,"ĠPOST":5737,"Ġproduces":5738,"Ġconvolutional":5739,"()\"":5740,"Ġ41":5741,"Ġ43":5742,"ĠCopy":5743,"ident":5744,"pectiv":5745,"Ġhour":5746,"Ġhidden":5747,"ĠAt":5748,"Ġdelet":5749,"convert":5750,"Ġ89":5751,"Ġones":5752,"some":5753,"Info":5754,"Integers":5755,"percentage":5756,"Ġshift":5757,"ĠRead":5758,"ĠRemove":5759,"ĠUN":5760,"Ġperimeter":5761,"Ġperiod":5762,"ĠGPT":5763,"2021":5764,"Ġequals":5765,"IME":5766,"refix":5767,"Ġperforming":5768,"000000":5769,"Ġbuttons":5770,"pril":5771,"Ġrepeating":5772,"Ġdirectly":5773,"grades":5774,"Thursday":5775,"Ġsolutions":5776,"Ġseparated":5777,"Ġcontinuous":5778,"Ġrelated":5779,"Ġfrequently":5780,"Ġparentheses":5781,"Ġcomparing":5782,"]|[":5783,"Ġfixed":5784,"pairs":5785,"ĠTreeNode":5786,"}`);":5787,"Positive":5788,"Software":5789,"ĠConstructor":5790,"nology":5791,"Activity":5792,"Label":5793,"mbedding":5794,"break":5795,"Smallest":5796,"strptime":5797,"!\",":5798,"(*":5799,"04":5800,"63":5801,":'":5802,"BC":5803,"Be":5804,"Fizz":5805,"GB":5806,"James":5807,"May":5808,"Merge":5809,"Move":5810,"Machine":5811,"Occur":5812,"Pop":5813,"Some":5814,"Saturday":5815,"UI":5816,"Vis":5817,"[^":5818,"bottom":5819,"cab":5820,"card":5821,"categorical":5822,"gen":5823,"greater":5824,"merge":5825,"tual":5826,"Ġrecur":5827,"urther":5828,"Ġ\"/":5829,"Ġben":5830,"Ġarch":5831,"Ġandroid":5832,"Ġ'+":5833,"rial":5834,"Ġgpa":5835,"Ġstyles":5836,"Ġprinted":5837,"ĠPhone":5838,"peech":5839,"Ġrespectiv":5840,"cription":5841,"Ġsection":5842,"++,":5843,"ĠsumArray":5844,"image":5845,"ĠOOP":5846,"Ġrole":5847,"movie":5848,"Ġ99":5849,"inputs":5850,"myArray":5851,"Ġcontainer":5852,"serted":5853,"atically":5854,"Ġmysqli":5855,"addEventListener":5856,"Ġapple":5857,"Ġidx":5858,"ĠuseState":5859,"ĠlongestString":5860,"Delete":5861,"ĠGPA":5862,"([\"":5863,"vals":5864,"Ġdoubled":5865,"Exp":5866,"Computer":5867,"Ġiterable":5868,"Ġiterating":5869,"nodes":5870,"ĠKey":5871,"template":5872,"Process":5873,"Ġsolving":5874,"Ġcommunic":5875,"middle":5876,"pages":5877,"Ġmatching":5878,"Head":5879,"Header":5880,"Ġswaps":5881,"Ġrenders":5882,"Ġrepeat":5883,"Ġdefines":5884,"Ġassigned":5885,"Ġfiles":5886,"Ġcats":5887,"without":5888,"Ġcontinues":5889,"seconds":5890,"Ġsupervised":5891,"marize":5892,"ighbors":5893,"Ġflattened":5894,"Ġdeclare":5895,"eeks":5896,"Ġnormalized":5897,"Ġprediction":5898,"ĠISBN":5899,"tokenize":5900,"Negative":5901,"Ġutili":5902,"IGN":5903,"ĠResult":5904,"@#$%^":5905,"iversity":5906,"Ġproviding":5907,"ORLD":5908,"Ġrespectively":5909,"({\"":5910,")])":5911,"07":5912,"54":5913,":]:":5914,">>":5915,"?\"":5916,"@\\":5917,"Alex":5918,"CSS":5919,"Calculator":5920,"Foo":5921,"Frequent":5922,"Friday":5923,"KEY":5924,"OOP":5925,"Step":5926,"Sarah":5927,"UE":5928,"Unique":5929,"VER":5930,"[@":5931,"bot":5932,"css":5933,"circle":5934,"dumps":5935,"fession":5936,"git":5937,"ho":5938,"hour":5939,"job":5940,"long":5941,"non":5942,"sim":5943,"}{":5944,"ĠGiven":5945,"Ġtw":5946,"Ġturn":5947,"Ġtab":5948,"real":5949,"ĊĠĠĠĠĠĠĊĠĠĠ":5950,"Ġfra":5951,"Ġinverse":5952,"Ġincorrect":5953,"Ġinventory":5954,"Ġscale":5955,"Ġpad":5956,"Ġreach":5957,"Ġrearrange":5958,"Ġtools":5959,"geles":5960,"Ġ\"#":5961,"Ġ\"\")":5962,"entiment":5963,"Ġemp":5964,"Ġmuch":5965,"Ġcoins":5966,"Ġden":5967,"Ġforward":5968,"Ġ'@":5969,"ssors":5970,"Ġ[{\"":5971,"Ġgood":5972,"Ġ(-":5973,"elvin":5974,"Ġstreet":5975,"Ġaltern":5976,"oms":5977,"aved":5978,"()}":5979,"forni":5980,"Ġ---------":5981,"Ġhal":5982,"Ġhide":5983,"ĠNa":5984,"ascending":5985,"ĠIs":5986,"Ġprograms":5987,"Ġasyn":5988,"concat":5989,"ĠWORLD":5990,"Ġ67":5991,"ists":5992,"istogram":5993,"domain":5994,"ĠDiv":5995,"ressure":5996,"ĠOther":5997,"Ġ95":5998,"aliforni":5999,"Ġcurl":6000,"ĠLondon":6001,"')[":6002,"matches":6003,"ferences":6004,"Ġouter":6005,"Ġoutli":6006,"Ġends":6007,"ĠRecurs":6008,"Ġsocket":6009,"ĠInitiali":6010,"ĠUI":6011,"curl":6012,"niques":6013,"Ġdividing":6014,"results":6015,"Ġoverflow":6016,"ensive":6017,"shadow":6018,"Eng":6019,"Ġdecre":6020,"cissors":6021,"Ġformatted":6022,"Ġdescrib":6023,"ĠPrints":6024,"TextField":6025,"ĠAngeles":6026,"component":6027,"MaxPooling":6028,"Ġupdates":6029,"ĠCompile":6030,"fox":6031,"Ġshows":6032,"Ġdivided":6033,"Ġtechniques":6034,"createElement":6035,"ÂłĠÂł":6036,"Ġassociative":6037,"Ġ1234":6038,"Algorithm":6039,"ALUE":6040,"sentiment":6041,"Female":6042,"Ġprincipal":6043,"Ġsecure":6044,"Ġswapped":6045,"capitalize":6046,"Ġreached":6047,"kyo":6048,"Ġsatis":6049,"Ġpotential":6050,"Ġbenef":6051,"@#$%^&*":6052,"alifornia":6053,"\"#":6054,"(\",":6055,"(['":6056,",}":6057,"47":6058,"51":6059,"68":6060,">$":6061,"DF":6062,"Http":6063,"MA":6064,"MP":6065,"Mark":6066,"NC":6067,"Ori":6068,"Rate":6069,"Range":6070,"Window":6071,"evaluate":6072,"gate":6073,"grid":6074,"ilo":6075,"imag":6076,"ku":6077,"ness":6078,"og":6079,"sy":6080,"sign":6081,"}')":6082,"ĊÂłÂł":6083,"Ġâķĳ":6084,"ĠĠĊĠĠĊĠĠĠ":6085,"ines":6086,"Ġtren":6087,"static":6088,"ene":6089,"enuse":6090,"Ġcredit":6091,"Ġinorder":6092,"Ġinserted":6093,"raint":6094,"Ġopt":6095,"meters":6096,"Ġ\"%":6097,"role":6098,"roup":6099,"Ġwide":6100,"Ġeval":6101,"Ġeffic":6102,"lour":6103,"Ġdot":6104,"lare":6105,"Ġ[('":6106,"define":6107,"Ġ}}</":6108,"isupper":6109,"ĠPrime":6110,"Ġmagn":6111,"idity":6112,"=\"\"":6113,"otenuse":6114,"ĠFound":6115,"Ġusually":6116,"getDate":6117,"ĠIF":6118,"Ġdeviation":6119,"ĊĠĠĠĠĠĠĠĠĠĠĠĠĠĠĠĠĠĠĠĠĠĠĠĠĠĠĠĠ":6120,"tail":6121,"Ġexpected":6122,"ayout":6123,"Ġroute":6124,"India":6125,"Ġ$_":6126,"hism":6127,"Ġcompares":6128,"appendChild":6129,"'));":6130,"feature":6131,"']))":6132,"ĊĉĊ":6133,"project":6134,"Ġexpressions":6135,"Ġlight":6136,"park":6137,"Ġspecify":6138,"urls":6139,"Ġfood":6140,"cipher":6141,"calc":6142,"STM":6143,"IMAL":6144,"Database":6145,"Rows":6146,"----------------":6147,"ĠConnect":6148,"Ġenco":6149,"Ġdistances":6150,"ypotenuse":6151,"Ġblocks":6152,"Ġnetworks":6153,"Ġvisuali":6154,"ĠCompute":6155,"ĠparseInt":6156,"inclusive":6157,"Ġheadings":6158,"Ġposts":6159,"Students":6160,"agon":6161,"Ġinstances":6162,"multiplication":6163,"Ġexceptions":6164,"Response":6165,"Days":6166,"\\/\\/":6167,"=$(":6168,"sentences":6169,"tuples":6170,"Formulate":6171,"zeros":6172,"Ġoldest":6173,"Ġneighbors":6174,"$/;":6175,"ymorp":6176,"ĠContent":6177,"Ġreplacing":6178,"Ġscraper":6179,"Ġcategories":6180,"Ġsearched":6181,"special":6182,"Ġcircumference":6183,"Ġassembly":6184,"ĠLearning":6185,"ĠolleH":6186,"ĠDECIMAL":6187,"ymorphism":6188,"(__":6189,")\"":6190,"+----+--------":6191,"=${":6192,">\"":6193,"Cat":6194,"Cor":6195,"Digit":6196,"Diff":6197,"Fore":6198,"Longest":6199,"Los":6200,"Run":6201,"Sample":6202,"Term":6203,"US":6204,"VALUE":6205,"Whi":6206,"\\\":":6207,"alic":6208,"auth":6209,"can":6210,"clf":6211,"fir":6212,"hip":6213,"highest":6214,"iency":6215,"opping":6216,"rd":6217,"rat":6218,"ront":6219,"sine":6220,"six":6221,"vels":6222,"Ġaster":6223,"remainder":6224,"lear":6225,"Ġign":6226,"Ġfree":6227,"Ġrem":6228,"lide":6229,"medi":6230,"urtle":6231,"ately":6232,"Ġ\"-":6233,"loy":6234,"ĊĠĊĠĠ":6235,"ameter":6236,"Ġduring":6237,"anan":6238,"Ġ'#":6239,"quer":6240,"ĠSo":6241,"ĠStr":6242,"Ġalways":6243,"omin":6244,"ĠPromise":6245,"Ġprops":6246,"Ġprotect":6247,"()]":6248,"Ġ10000":6249,"mazing":6250,"otes":6251,"irtual":6252,"pear":6253,"Ġhome":6254,"Ġyoun":6255,"Ġusage":6256,"ĠArial":6257,"Ġdelimiter":6258,"ĠmaxCount":6259,"ccu":6260,"Ġ87":6261,"ĠonChange":6262,"Ġexchange":6263,"ĠMessage":6264,"ĠMachine":6265,"appy":6266,"Ġcounting":6267,"ĠHome":6268,"Recurs":6269,"ĠBST":6270,"ĠBuild":6271,"Ġrod":6272,"phrase":6273,"ĠrandomString":6274,"paces":6275,"ĠLanguage":6276,"week":6277,"ands":6278,"andler":6279,"Ġending":6280,"ĠThese":6281,"ĠIncre":6282,"off":6283,"ĠremoveDuplicates":6284,"choices":6285,"ponent":6286,"ĠVis":6287,"Ġselects":6288,"shuffle":6289,"Ġcases":6290,"ABA":6291,"Ġability":6292,"ToString":6293,"Ġentire":6294,"Animal":6295,"OfH":6296,"Ġmessages":6297,"\\.)+":6298,"Ġinteract":6299,"Ġproperly":6300,"Ġsingly":6301,"tribute":6302,"swith":6303,"Here":6304,"Height":6305,"Ġupdated":6306,"Linear":6307,"auto":6308,"footer":6309,"objects":6310,"Fields":6311,"ĠCountVectorizer":6312,"interest":6313,"Orders":6314,"Characters":6315,"Ġgenerator":6316,"Ġgenerally":6317,"Ġspi":6318,"[\\]\\":6319,"YYYY":6320,"Minimum":6321,"ĠChar":6322,"Products":6323,"Temperature":6324,"connector":6325,"Ġidentical":6326,"ĠINNER":6327,"Marks":6328,"programming":6329,"InstanceState":6330,"increasing":6331,"']['":6332,"Suppose":6333,"telligence":6334,"avedInstanceState":6335,"Ġhalves":6336,"ilometers":6337,"Ġefficiency":6338,"Which":6339,"Ġasteris":6340,"[\\]\\\\.,;:\\":6341,"\"):":6342,"*/":6343,"03":6344,"57":6345,"67":6346,"Aug":6347,"CS":6348,"Dis":6349,"Double":6350,"FERE":6351,"Full":6352,"If":6353,"Jill":6354,"NS":6355,"NY":6356,"Oct":6357,"Post":6358,"Sp":6359,"Sam":6360,"[(":6361,"`);":6362,"block":6363,"btn":6364,"client":6365,"fif":6366,"factor":6367,"folder":6368,"gree":6369,"hover":6370,"hidden":6371,"mory":6372,"meric":6373,"ns":6374,"nine":6375,"ograph":6376,"pol":6377,"ql":6378,"rary":6379,"tot":6380,"task":6381,"uss":6382,"xlabel":6383,"ylabel":6384,"||":6385,"}>":6386,"}}":6387,"Ġ^":6388,"rem":6389,"stop":6390,"Ġcy":6391,"Ġinvalid":6392,"Ġsuggest":6393,"decode":6394,"Ġpract":6395,"Ġplan":6396,"Ġreus":6397,"Ġrecent":6398,"Ġreview":6399,"Ġtool":6400,"strate":6401,"Ġangle":6402,"uration":6403,"allow":6404,"ges":6405,"Ġearn":6406,"Ġmoney":6407,"than":6408,"Ġdol":6409,"ivity":6410,"ĊĠĠĠĠĠĠĠĠĠĠĊĠĠĠĠĠĠĠ":6411,"Ġisbn":6412,"quation":6413,"Ġvowel":6414,"ĠSV":6415,"Ġlisten":6416,"ĠprintFibonacci":6417,"Ġallocation":6418,"adig":6419,"Ġrank":6420,"()-":6421,"Ġ48":6422,"=\"\")":6423,"force":6424,"ĠFran":6425,"terms":6426,"crimin":6427,"Ġjohn":6428,"Ġsegment":6429,"ĠId":6430,"construct":6431,"Ġitalic":6432,"ĠWelcome":6433,"mplex":6434,"Ġloc":6435,"Regex":6436,"('-":6437,"ayments":6438,"orem":6439,"Inter":6440,"inputString":6441,"Ġbyte":6442,"Ġcurrency":6443,"ftime":6444,"Ġdogs":6445,"ĠsortArray":6446,"âĢľ":6447,"ĠExtract":6448,"Ġwere":6449,"Ġsubproblems":6450,"ĠmyTable":6451,"ArrayList":6452,"ĠRun":6453,"ĠRed":6454,"><?":6455,"ĠreverseArray":6456,"'].":6457,"bruary":6458,"Ġheaders":6459,"anti":6460,"ĠState":6461,"ensity":6462,"Ġroots":6463,"Ġoperating":6464,"share":6465,"Ġextra":6466,"timestamp":6467,"Ġdecode":6468,"cise":6469,"extract":6470,"Ġfilename":6471,"ĠDog":6472,"abcde":6473,"Ġimplemented":6474,"Property":6475,"beled":6476,"Ġmoves":6477,"Answer":6478,"ĠreversedStr":6479,"Ġconditional":6480,"ously":6481,"ĠPrinting":6482,"CharArray":6483,"expr":6484,"DateFormat":6485,"Ġcommands":6486,"Ġdatasets":6487,"Ġnullptr":6488,"Ġhashmap":6489,"Paul":6490,"Ġpeek":6491,"Dog":6492,"ĠAppend":6493,"Ġencryption":6494,"ĠWebpage":6495,"lisher":6496,"checkbox":6497,"Ġoptimized":6498,"555":6499,"Ġunders":6500,"Default":6501,"integers":6502,"Series":6503,"multiples":6504,"-]+\\.[":6505,"-]+@[":6506,"(?=":6507,"small":6508,"Ġsignific":6509,"rincipal":6510,"Ġrepeatedly":6511,"Ġprimary":6512,"squared":6513,"Ġactive":6514,"Ġidentifier":6515,"ĠMOV":6516,"Ġverb":6517,"ĠBinarySearch":6518,"ĠREFERE":6519,"combinations":6520,"distinct":6521,"Ġsimilarity":6522,"ormal":6523,"Ġdeclaring":6524,"ĠCaesar":6525,"Ġsuccessfully":6526,"Ġhuman":6527,"HELLO":6528,"operator":6529,"ĠEngineer":6530,"NCES":6531,"Ġoptimal":6532,"ananas":6533,"OfHanoi":6534,"criminant":6535,"ĠREFERENCES":6536,".+":6537,"38":6538,"AA":6539,"CC":6540,"Call":6541,"Customers":6542,"Celsius":6543,"FT":6544,"JS":6545,"January":6546,"NB":6547,"OW":6548,"Square":6549,"URD":6550,"bb":6551,"black":6552,"brown":6553,"cl":6554,"draw":6555,"ffe":6556,"full":6557,"final":6558,"flag":6559,"gt":6560,"gcd":6561,"greeting":6562,"generator":6563,"hash":6564,"hook":6565,"lug":6566,"mited":6567,"missing":6568,"ober":6569,"png":6570,"same":6571,"uid":6572,"Ġ))":6573,"income":6574,"inventory":6575,"Ġcut":6576,"Ġcriter":6577,"levant":6578,"Ġflat":6579,"Ġins":6580,"ump":6581,"Ġscience":6582,"Ġsleep":6583,"itter":6584,"Ġplay":6585,"Ġreject":6586,"Ġreversing":6587,"Ġoccupation":6588,"Ġwelcome":6589,"unded":6590,"Ġcourses":6591,"stringify":6592,"lap":6593,"ĠisEmpty":6594,"Ġ[...":6595,"tein":6596,"itect":6597,"cell":6598,"quences":6599,"Ġvirtual":6600,"Ġlcs":6601,"ĠSample":6602,"etwork":6603,"ĠPurchase":6604,"ilities":6605,"ĠCURL":6606,"ĠJS":6607,"ultinomial":6608,"ĠTe":6609,"__)":6610,"Ġneur":6611,"ĠAuthor":6612,"Ġsee":6613,"Ġsever":6614,"ĠsumOf":6615,"Ġsummation":6616,"ccc":6617,"LEFT":6618,"Ġexact":6619,"ĠnewArray":6620,"ĠnewArr":6621,"ĠManager":6622,"HelloWorld":6623,"ĠOR":6624,"ĠButton":6625,"ĠBank":6626,"]),":6627,"Ġ98":6628,"permutation":6629,"logo":6630,"Ġlabeled":6631,"Ġ/><":6632,"ablish":6633,"access":6634,"Ġsubstr":6635,"Ġcalculated":6636,"Numeric":6637,"Ġpast":6638,"Ġdiscount":6639,"Description":6640,"ĠRoman":6641,"Ġpercentage":6642,"Dep":6643,"China":6644,"rypted":6645,"processing":6646,"shift":6647,"shtein":6648,"Ġiterative":6649,"ĠYes":6650,"calculator":6651,"Ġfilters":6652,"obb":6653,"Ġ{}'.":6654,"âĢĿ:":6655,"\\.\\":6656,"Ġassert":6657,"Ġtriplet":6658,"Ġfeed":6659,"latform":6660,"compare":6661,"swap":6662,"ategorize":6663,"ĠURLs":6664,"Ġskip":6665,"priority":6666,"ĠNumPy":6667,"noinput":6668,"Ġimages":6669,"Ġoptimizer":6670,"navbar":6671,"ĠHeap":6672,"Ġstorage":6673,"+-----------":6674,"Ġsimulate":6675,"params":6676,"Ġpriority":6677,"Ġpieces":6678,"Ġactual":6679,"Ġolder":6680,"ĲâķĲâķĲâķĲâķ":6681,"Ġaxis":6682,"Ġmanagement":6683,"Points":6684,"Ġpyramid":6685,"Ġsqlite":6686,"Ġindicating":6687,"Ġswapping":6688,"blank":6689,"ĠColor":6690,"dependent":6691,"Seconds":6692,"spam":6693,"uclide":6694,"website":6695,"Ġmutable":6696,"Ġtemporary":6697,"Assign":6698,"written":6699,"Ġsurface":6700,"Ġartificial":6701,"firm":6702,"(?=.*":6703,"URDATE":6704,"uclidean":6705,"!@#$%^&*":6706,"#.":6707,"%;\">":6708,"(&":6709,".')":6710,"08":6711,"09":6712,"39":6713,"49":6714,"72":6715,":.":6716,":\\/\\/":6717,"Bo":6718,"Categorize":6719,"DArray":6720,"Evaluate":6721,"Fa":6722,"Fran":6723,"Fib":6724,"File":6725,"Ge":6726,"Mango":6727,"Pattern":6728,"Peter":6729,"Simple":6730,"TABLE":6731,"]<":6732,"border":6733,"boolean":6734,"cis":6735,"cus":6736,"cked":6737,"cba":6738,"eq":6739,"ever":6740,"eople":6741,"gg":6742,"gress":6743,"guess":6744,"home":6745,"ich":6746,"menu":6747,"mouse":6748,"prefix":6749,"vowel":6750,"zes":6751,"}'.":6752,"ĉĉ":6753,"Ġ~":6754,"Ġ],":6755,"inux":6756,"Ġtill":6757,"star":6758,"erative":6759,"ĊĠĠĠĊĠĠ":6760,"Ġcum":6761,"Ġcra":6762,"Ġide":6763,"Ġfi":6764,"Ġinvo":6765,"Ġsa":6766,"delete":6767,"Ġplatform":6768,"Ġreposit":6769,"rast":6770,"method":6771,"member":6772,"strftime":6773,"uro":6774,"alphanumeric":6775,"sevent":6776,"Ġbanana":6777,"thir":6778,"Ġcoefficients":6779,"Ġdraw":6780,"Ġ'_":6781,"ĠisAnagram":6782,"cel":6783,"Ġlcm":6784,"isbn":6785,"isEmpty":6786,"ĠSp":6787,"Ġalt":6788,"Ġ54":6789,"ĠPy":6790,"Ġmapping":6791,"iling":6792,"pture":6793,"ĠCase":6794,"ĠCour":6795,"ĠJob":6796,"grapes":6797,"ĠTrans":6798,"ĠTriangle":6799,"cking":6800,"Ġ-------":6801,"getable":6802,"Ġwhitespace":6803,"ĠIm":6804,"Ġdead":6805,"Ġascii":6806,"connection":6807,"ĠmaxVal":6808,"ĊĠĠĠĠĠĠĠĠĠĠĠĠĊĠĠĠ":6809,"Ġquad":6810,"ough":6811,"Ġonline":6812,"Ġ63":6813,"ĠnewString":6814,"ĠMIN":6815,"ĠMultinomial":6816,"ĠDOM":6817,"]));":6818,"mov":6819,"Interest":6820,"myDict":6821,"Ġintegr":6822,"Ġcompressed":6823,"paper":6824,"Ġsetters":6825,"Names":6826,"][\"":6827,"anging":6828,"Ġ____":6829,"ĠcalculateArea":6830,"Ġminmax":6831,"Ġparam":6832,"Ġparadig":6833,"toLo":6834,"toCharArray":6835,"subarray":6836,"ĠUSA":6837,"ĠGo":6838,"ĠGender":6839,"ĠVehicle":6840,"Company":6841,"uplicated":6842,"Stream":6843,"Ġitertools":6844,"Enc":6845,"catter":6846,"ĠYear":6847,"cikit":6848,"Ġpasswords":6849,"REIGN":6850,"obile":6851,"whitespace":6852,"Ġsolved":6853,"Summarize":6854,"Ġencaps":6855,"Ġcalling":6856,"OUR":6857,"Ġsquared":6858,"Ġreplacement":6859,"Ġtransfer":6860,"ĠSecond":6861,"loading":6862,"Ġcentered":6863,"uffman":6864,"Login":6865,"ĠDatabase":6866,"Dictionary":6867,"posts":6868,"Ġanalyze":6869,"itespaces":6870,"Ġdynamically":6871,"Ġboxes":6872,"Ġsys":6873,">{{":6874,"ierarch":6875,"months":6876,"xxxx":6877,"uzzle":6878,"Ġknow":6879,"Ġvariety":6880,"occurrence":6881,"ordinate":6882,"Ġquestions":6883,"encoded":6884,"Ġinstruction":6885,"Canada":6886,"Ġprinciple":6887,"roller":6888,"ĠThread":6889,"Ġadvantage":6890,"Ġreceive":6891,"Ġtkinter":6892,"Ġshared":6893,"repeating":6894,"wikipedia":6895,"Ġstatistics":6896,"Ġboundary":6897,"Ġenables":6898,"ulous":6899,"ĠPassword":6900,"Ġindentation":6901,"Ġworst":6902,"ĠaddTwoNumbers":6903,"Ġarchitect":6904,"Ġtwice":6905,"Ġasynchron":6906,"Ġoutliers":6907,"$(":6908,"(...":6909,"(\\.[":6910,")\")":6911,"+/":6912,".__":6913,"/%":6914,"300":6915,">;":6916,"Aust":6917,"April":6918,"BB":6919,"Balance":6920,"Dave":6921,"Em":6922,"FS":6923,"Frequency":6924,"Generator":6925,"Geeks":6926,"Group":6927,"HAVING":6928,"Imp":6929,"IFO":6930,"MIN":6931,"Menu":6932,"Out":6933,"PUT":6934,"Sw":6935,"Top":6936,"Triangle":6937,"]//":6938,"actions":6939,"bra":6940,"dl":6941,"duplicate":6942,"frequencies":6943,"hours":6944,"history":6945,"present":6946,"pressure":6947,"sparse":6948,"tract":6949,"uped":6950,"vlet":6951,"welcome":6952,"}[":6953,"Ġul":6954,"erb":6955,"eni":6956,"env":6957,"ended":6958,"ories":6959,"orning":6960,"ĠcURL":6961,"Ġtheme":6962,"Ġincome":6963,"aring":6964,"Ġsheet":6965,"Ġsession":6966,"Ġpunctu":6967,"Ġreuse":6968,"Ġredirect":6969,"Ġrelevant":6970,"ralia":6971,"alnum":6972,"alloc":6973,"seven":6974,"Ġ\"!":6975,"Ġ\"</":6976,"roW":6977,"enty":6978,"untered":6979,"Ġbro":6980,"Ġbank":6981,"Ġdon":6982,"Ġdjango":6983,"ulus":6984,"ulated":6985,"Ġ[{":6986,"chart":6987,"Ġvery":6988,"Ġvec":6989,"ranch":6990,"ĠSentiment":6991,"Ġ51":6992,"numeric":6993,"ĠPattern":6994,"Ġprom":6995,"Ġconcise":6996,"xty":6997,"ĠCal":6998,"indices":6999,"romic":7000,"licit":7001,"(\"{":7002,"Ġhierarch":7003,"ĠAX":7004,"ĠAfter":7005,"Ġquer":7006,"ĠclassName":7007,"Ġresultdef":7008,"ccuracy":7009,"application":7010,"lengths":7011,"('\\":7012,"ĠOne":7013,"Ġcanvas":7014,"ĠBo":7015,"movies":7016,"Ġ%.":7017,"mydb":7018,"Ġleak":7019,"perimeter":7020,"Ġdirection":7021,"ĠLinux":7022,"login":7023,"ĠĊĠĊĠ":7024,"exec":7025,"ĠEND":7026,"ĠEvaluate":7027,"service":7028,"amb":7029,"comment":7030,"commit":7031,"Ġminim":7032,"Ġrather":7033,"toggle":7034,"ĠInst":7035,"Ġ::":7036,"curity":7037,"']:":7038,"constraint":7039,"trim":7040,"ants":7041,"minutes":7042,"Execute":7043,"Compat":7044,"Ġextend":7045,"Ġbreaking":7046,"Ġdatabases":7047,"alindromic":7048,"Ġregister":7049,"****":7050,"111":7051,"Ġdescribe":7052,"jsonString":7053,"Ġimplementing":7054,"ĠXOR":7055,"Ġtopics":7056,"Ġpurple":7057,"ĠAny":7058,"Ġtrained":7059,"Ġincluded":7060,"sport":7061,"ission":7062,"\"}'":7063,"outputs":7064,"OPT":7065,"Ġ(\"%":7066,"Ġimmedi":7067,"ViewById":7068,"Ġbegins":7069,"Weight":7070,"ynamic":7071,"Ġsubtraction":7072,"ĠHeading":7073,"Ġrelations":7074,"Ġrelational":7075,"Ġdesigned":7076,"okie":7077,"Alphabet":7078,"ĠDelete":7079,"Ġforecast":7080,"divisor":7081,"Ġciphertext":7082,"Ġconnected":7083,"Divis":7084,"querySelectorAll":7085,"register":7086,"Ġoffers":7087,"Ġretrieval":7088,"Ġretrieving":7089,"February":7090,"Ġbiggest":7091,"Show":7092,"(/\\":7093,"Ġrefers":7094,"Ġbrackets":7095,"ĠSeries":7096,"765":7097,"Ġawk":7098,"ĠInsertion":7099,"ĠContact":7100,"ysics":7101,"ĠExpression":7102,"DIR":7103,"Queue":7104,"ĠMovies":7105,"ĠDictionary":7106,"^(([":7107,"handleChange":7108,"visited":7109,"command":7110,"Root":7111,"ipped":7112,"^<>()\\":7113,"Ġcompiler":7114,"Ġauthentication":7115,"Ġroman":7116,"Ġissue":7117,"identical":7118,"ĠInitializing":7119,"components":7120,"symb":7121,"Ġencountered":7122,"Correct":7123,"Ġignore":7124,"ĠStruct":7125,"Ġprotected":7126,"\\.)+[":7127,"August":7128,"Ġcriteria":7129,"lapse":7130,"ĠCURLOPT":7131,"ĠBankAccount":7132,"obbies":7133,"Australia":7134,"%'":7135,"(_":7136,".,":7137,"./":7138,"500":7139,">#":7140,">'":7141,"AM":7142,"AS":7143,"ADD":7144,"CM":7145,"Ca":7146,"Cal":7147,"California":7148,"CURDATE":7149,"Drop":7150,"Five":7151,"Hex":7152,"Handler":7153,"INT":7154,"June":7155,"Lear":7156,"LAB":7157,"Non":7158,"Own":7159,"QUE":7160,"RING":7161,"TH":7162,"]];":7163,"_(":7164,"aj":7165,"classes":7166,"fort":7167,"fish":7168,"gument":7169,"greet":7170,"hr":7171,"iq":7172,"lang":7173,"none":7174,"nlog":7175,"schema":7176,"scissors":7177,"used":7178,"wner":7179,"where":7180,"wargs":7181,"inety":7182,"ĠĠĠĠĊĠĠĠĠĠĠĠĠĠĠĠ":7183,"Ġamazing":7184,"oring":7185,"orge":7186,"orth":7187,"oriz":7188,"ontal":7189,"Ġcss":7190,"leg":7191,"Ġindependent":7192,"Ġpres":7193,"Ġplayers":7194,"Ġpayment":7195,"Ġopp":7196,"metrics":7197,"seed":7198,"uted":7199,"uture":7200,"ented":7201,"Ġ<?":7202,"Ġwait":7203,"Ġmanager":7204,"Ġbin":7205,"Ġcolour":7206,"Ġdd":7207,"Ġder":7208,"ĠnumList":7209,"Ġthus":7210,"cember":7211,"default":7212,"ĠShe":7213,"ithub":7214,"Ġstill":7215,"Ġalpha":7216,"Ġ555":7217,"etic":7218,"etree":7219,"numer":7220,"ĠPRO":7221,"Ġproto":7222,"ilter":7223,"icag":7224,"icograph":7225,"Ġcodes":7226,"()))":7227,"ĠCat":7228,"ids":7229,"ĠJune":7230,"formed":7231,"ĠTotal":7232,"ĠTower":7233,"(\"#":7234,"ĠFO":7235,"Ġhouse":7236,"Ġnearest":7237,"getMonth":7238,"ascal":7239,"Ġsecret":7240,"edian":7241,"ĠImport":7242,"ĠonClick":7243,"ĠWhat":7244,"ĠĊĠĠĊ":7245,"ĠMary":7246,"apples":7247,"ĠDAY":7248,"Rec":7249,"Record":7250,"Ġ79":7251,"ĠBayes":7252,"source":7253,"mystring":7254,"nested":7255,"pass":7256,"Connect":7257,"ured":7258,"ĠLe":7259,"Ġtaken":7260,"âĢĺ":7261,"ĠoutputString":7262,"exponent":7263,"Ġsubclass":7264,"Ġsubsets":7265,"undred":7266,"Ġchecksum":7267,"Ġoutside":7268,"-----|":7269,"ĠThere":7270,"Ġapples":7271,"Come":7272,"Ġindexes":7273,"ĠRegular":7274,"Ġkilometers":7275,"Ġattr":7276,"ĠInter":7277,"posed":7278,"']]":7279,"Ġ120":7280,"ĊĉĠĠĠ":7281,"placeholder":7282,"Ġ256":7283,"Ġcontrast":7284,"ĠleftIndex":7285,"Ġoverloading":7286,"ularity":7287,"]]#":7288,"ATLAB":7289,"ync":7290,"Ġregistration":7291,"reading":7292,"Ġdepend":7293,"ĠKeras":7294,"Ġinserting":7295,"duction":7296,"Ġinteractive":7297,"Ġintersect":7298,"Ġacross":7299,"splice":7300,"swers":7301,"Ġdoesn":7302,"Ġlogical":7303,"Intensity":7304,"]))]":7305,"Ġcombines":7306,"1415":7307,"fully":7308,"9999":7309,"Ġcalculation":7310,"Ġcalculations":7311,"ĠEnd":7312,"Ġassigns":7313,"Ġpassing":7314,"Ġpasswd":7315,"Ġpostfix":7316,"Keys":7317,"carrot":7318,"stdlib":7319,"discount":7320,"hostname":7321,"Ġrotation":7322,"Ġimproved":7323,"EGIN":7324,"Ġinvolve":7325,"Ġcars":7326,"period":7327,"ilarity":7328,"Left":7329,"Analyzer":7330,"anagrams":7331,"Ġaccessing":7332,"atcher":7333,"Ġsymbol":7334,"super":7335,"Ġholds":7336,"4321":7337,"Position":7338,"module":7339,"Ġawait":7340,"Ġdeclaration":7341,"Ġreplaces":7342,"(\"*\",":7343,"Ġinterpreter":7344,"Quest":7345,"reshold":7346,"fetchall":7347,"Ġsearches":7348,"Ġclustering":7349,"department":7350,"hasOwn":7351,"Ġrespons":7352,"etails":7353,"urant":7354,"ĠNeural":7355,"ublyLinkedList":7356,"Ġsimpler":7357,"Util":7358,"Ġ----------":7359,"Ġbenefits":7360,"Ġvisualization":7361,"agonal":7362,"ĠFrancis":7363,"ĠPurchases":7364,"Ġseveral":7365,"Ġrepository":7366,"ĠCourse":7367,"Ġparadigm":7368,"toLocale":7369,"Ġpunctuations":7370,"ĠSentimentIntensity":7371,"Learn":7372,"orizontal":7373,"icago":7374,"hasOwnProperty":7375,"ĠFrancisco":7376,"ĠSentimentIntensityAnalyzer":7377,"\"<":7378,")];":7379,"+$":7380,"+',":7381,"86":7382,"89":7383,":(":7384,"=>":7385,">';":7386,"@\"]+":7387,"AE":7388,"AG":7389,"Blue":7390,"BEGIN":7391,"Close":7392,"DU":7393,"Dates":7394,"Display":7395,"LO":7396,"March":7397,"Oper":7398,"Open":7399,"Occupation":7400,"Pane":7401,"RA":7402,"Tag":7403,"Ur":7404,"Var":7405,"Wh":7406,"]=":7407,"cpp":7408,"call":7409,"dx":7410,"flex":7411,"how":7412,"hide":7413,"hobby":7414,"ieve":7415,"iloc":7416,"kn":7417,"mul":7418,"mic":7419,"mult":7420,"more":7421,"opt":7422,"sa":7423,"syn":7424,"tm":7425,"tact":7426,"yellow":7427,"ÃĹ":7428,"inorder":7429,"ĠĠĠĠĊĠĠĠĠĠĠĠ":7430,"Ġach":7431,"Ġapi":7432,"atives":7433,"Ġ=\",":7434,"Ġcre":7435,"ĠcamelCase":7436,"Ġclear":7437,"Ġful":7438,"Ġfif":7439,"Ġspeech":7440,"Ġpuzzle":7441,"Ġowner":7442,"libr":7443,"Ġtoo":7444,"strlen":7445,"Ġanimation":7446,"units":7447,"anies":7448,"answer":7449,"ric":7450,"Ġthous":7451,"uly":7452,"Ġgradient":7453,"ished":7454,"ĠĊĠĠĠĊĠĠĠĠĠĠĠ":7455,"ĠScal":7456,"ubes":7457,"ĠPlease":7458,"ĠPeople":7459,"Ġprofile":7460,"admin":7461,"Ġ49":7462,"ĠCan":7463,"ĠCell":7464,"grape":7465,"ĠTOP":7466,"ota":7467,"(\"\");":7468,"cker":7469,"Ġhypotenuse":7470,"Ġchanging":7471,"Ġresolve":7472,"ĠAss":7473,"ĠAll":7474,"ĠNot":7475,"Ġdevice":7476,"Ġdeletion":7477,"Ġdeposit":7478,"001":7479,"ĊĠĠĠĠĠĠĠĠĠĠĠĠĊĠĠĠĠĠĠĠĠĠĠĠ":7480,"tags":7481,"ĠĊĊĠ":7482,"Ġ800":7483,"ĠWh":7484,"ĠWith":7485,"keyword":7486,"imer":7487,"Ġlogs":7488,"Ġcalendar":7489,"ĠHttp":7490,"Rearrange":7491,"article":7492,"ĠgetRandom":7493,"datasets":7494,"Ġlex":7495,"Ġlead":7496,"Ġcompanies":7497,"Contain":7498,"sumer":7499,"expected":7500,"ĠEX":7501,"Ġcheckbox":7502,"matrices":7503,"Ġrgb":7504,"subsequence":7505,"ĠIndex":7506,"Ġexplicit":7507,"labels":7508,"Ġunion":7509,"Ġprede":7510,"ource":7511,"ĠGoogle":7512,"Ġ150":7513,"ĠVariable":7514,"Ġselected":7515,"Ġoverall":7516,"Ġlis":7517,"parsed":7518,"parameter":7519,"Ġstructured":7520,"izes":7521,"Ġfooter":7522,"ATABA":7523,"Main":7524,"ElementTree":7525,"caler":7526,"Sep":7527,"ĠComplex":7528,"Ġtradition":7529,"Ġtraversing":7530,"1234":7531,"Ġoccurred":7532,"Ġfloats":7533,"Ġfloating":7534,"ĠLists":7535,"years":7536,"Application":7537,"Ġscient":7538,"Parser":7539,"typeof":7540,"ĠĊĠĠĠĠĠĠĠĠĠĠĠĠĠĠ":7541,"ĠĊĠĠĠĠĠĠĠĠĠĠĠĠĠĠĊĠĠĠĠĠĠĠĠĠĠĠ":7542,"ĠfibList":7543,"Ġlogo":7544,"ĠLocal":7545,"Ġcomputers":7546,"Ġcomputation":7547,"ensions":7548,"ĠTableA":7549,"faces":7550,"askell":7551,"Ġremote":7552,"ckets":7553,"Ġpredicting":7554,"Ġcause":7555,"ĠAppCompat":7556,"Ġgrouped":7557,"ĠĠĠĠĠĠĠĠĠĠĠĠĠĠĠĠĠĠĠĠĠĠĠĠĠĠĠĠĠĠĠĠ":7558,"latest":7559,"readed":7560,"Collection":7561,"Ġjoined":7562,"cars":7563,"Ġurls":7564,"ĠHeader":7565,"Ġrelative":7566,"Ġinstanti":7567,"Ġadjust":7568,"Ġconcatenation":7569,"Ġpurchases":7570,"Ġmultith":7571,"backgroundColor":7572,"ĠRandomFore":7573,"1234567890":7574,"ÂłĠÂłĠÂłĠÂłĠ":7575,"ĠParse":7576,"Division":7577,"Mean":7578,"ĠServer":7579,"Ġunderstanding":7580,"Ġmanipulate":7581,"Ġevaluates":7582,"capitalized":7583,"NAME":7584,"javascript":7585,"Ġreleased":7586,"Ġautomatically":7587,"ĠDesign":7588,"ĠHowever":7589,"Ġdimensional":7590,"ĠSimpleDateFormat":7591,"prediction":7592,"Ġrecognition":7593,"Visit":7594,"[@]}":7595,"similarity":7596,"Ġfragment":7597,"ĠNaive":7598,"ĊÂłÂłÂł":7599,"Recursion":7600,"Ġspiral":7601,"October":7602,"totype":7603,"ĠSVC":7604,"Ġneurons":7605,"(?=.*[":7606,"ĠImage":7607,"ĠMultinomialNB":7608,"Emily":7609,"Ġqueries":7610,"Ġrelationship":7611,"^<>()\\[\\]\\\\.,;:\\":7612,"ĠFOREIGN":7613,"known":7614,"library":7615,"ATABASE":7616,"Ġtraditional":7617,"ĠRandomForest":7618,"\"][\"":7619,"%.":7620,"/\\":7621,"96":7622,"?\\":7623,"Bye":7624,"Cl":7625,"Ext":7626,"Found":7627,"Gre":7628,"Greeting":7629,"HR":7630,"HTTP":7631,"IV":7632,"Len":7633,"NIST":7634,"Ste":7635,"Sql":7636,"Tax":7637,"Zero":7638,"]][":7639,"`,":7640,"`;":7641,"aded":7642,"buffer":7643,"cer":7644,"dot":7645,"dating":7646,"epy":7647,"eep":7648,"gmail":7649,"ised":7650,"iPhone":7651,"je":7652,"kwargs":7653,"ninety":7654,"pur":7655,"wrap":7656,"yes":7657,"}/":7658,"ĠĠĊĠĠĠĠĠĠ":7659,"Ġtbl":7660,"enate":7661,"atin":7662,"orie":7663,"onclick":7664,"onitor":7665,"Ġcart":7666,"Ġclick":7667,"ĊĠĠĠĠĠĊĠĠĠ":7668,"Ġfuture":7669,"Ġslug":7670,"deg":7671,"iting":7672,"itial":7673,"Ġpet":7674,"Ġpip":7675,"Ġreq":7676,"Ġresta":7677,"Ġop":7678,"Ġtokens":7679,"aling":7680,"allen":7681,"alog":7682,"secret":7683,"Ġ\"\");":7684,"rooms":7685,"ĊĠĊĠĠĠĠĠĠĠĠĠĠĠ":7686,"unted":7687,"Ġbl":7688,"Ġbdef":7689,"Ġ{%":7690,"Ġcome":7691,"Ġcosine":7692,"Ġdy":7693,"Ġdic":7694,"Ġduplicated":7695,"stringLength":7696,"Ġarrange":7697,"ĊĠĠĠĠĠĠĠĠĠĊĠĠĠĠĠĠĠ":7698,"Ġ':":7699,"lapping":7700,"Ġthreshold":7701,"Ġ(+":7702,"ceed":7703,"Ġvert":7704,"islower":7705,"isalnum":7706,"ĠSpark":7707,"Ġstream":7708,"ĠprintArray":7709,"etween":7710,"ĠPalindrome":7711,"Ġmaze":7712,"pped":7713,"icles":7714,"Ġ46":7715,"idget":7716,"=\"_":7717,"ultane":7718,"odb":7719,"ĠTw":7720,"ĠTake":7721,"males":7722,"(\"<":7723,"ĠFrequency":7724,"ĠFurther":7725,"Ġhis":7726,"Ġhobby":7727,")){":7728,"ĠAc":7729,"ĠArea":7730,"ĠAbout":7731,"getTime":7732,"Ġwhitespaces":7733,"Ġseq":7734,"Ġseven":7735,"Ġsequential":7736,"edu":7737,"render":7738,"Ġdeck":7739,"Ġdegree":7740,"ĠcharMap":7741,"Ġfolder":7742,"converted":7743,"Ġmaxlen":7744,"tach":7745,"headers":7746,"usic":7747,"Ġ86":7748,"Ġonto":7749,"Ġexam":7750,"Ġ600":7751,"istical":7752,"ĠMATLAB":7753,"ĠDATABASE":7754,"ĠHaskell":7755,"('#":7756,"ĠinputArray":7757,"ĠaddNumbers":7758,"outcomes":7759,"\"),":7760,"\"));":7761,"Ġ%}":7762,"Ġ91":7763,"mydict":7764,"perties":7765,"ĠrandomNumber":7766,"Ġdie":7767,"ĠLu":7768,"ĠLib":7769,"ĠLSTM":7770,"ĠEuclidean":7771,"Ġsubject":7772,"undle":7773,"Ġtextbox":7774,"Ġmystring":7775,"combine":7776,"Ġ2018":7777,"setState":7778,"Ġrules":7779,"Ġparser":7780,"Ġshallow":7781,"Ġids":7782,"Ġindexing":7783,"ĠRo":7784,"Ġexpensive":7785,"Ġwebhook":7786,"><!":7787,"Ġcharacteristics":7788,"Cherry":7789,"property":7790,"profession":7791,"Ġevening":7792,"ĠStandard":7793,"paragraph":7794,"times":7795,"Strawberry":7796,"Ġiterator":7797,"cheNode":7798,"ĠlargestNumber":7799,"extraction":7800,"Ġvalidating":7801,"Ġequality":7802,"startswith":7803,"RENT":7804,"ToDec":7805,"refore":7806,"Ġjsonify":7807,"ĠjsonObj":7808,"ĠdeleteNode":7809,"ĠmergeSort":7810,"Ġextracts":7811,"ĠAPIs":7812,"express":7813,"Ġsyntact":7814,"reverseString":7815,"Append":7816,"formatted":7817,"Heap":7818,"[:,":7819,"[:-":7820,"Ġaccessible":7821,"Ġvisits":7822,"Ġdeveloping":7823,"\"}]":7824,"ovember":7825,"ĠNumbers":7826,"corpus":7827,"Document":7828,"Ġ8080":7829,"Ġcauses":7830,"Ġcapture":7831,"Log":7832,"Ġpaths":7833,"Ġprocessed":7834,"phoneNumber":7835,"insertion":7836,"Ġrequirements":7837,"ĠXMLHttp":7838,"ĠmergedArray":7839,"lars":7840,"Ġsimultane":7841,"Combine":7842,"Ġgenerating":7843,"ĠChange":7844,"Team":7845,"eee":7846,"ernel":7847,"Ġaccordingly":7848,"PhoneNumber":7849,"ĠlocalStorage":7850,"Ġdetermined":7851,"Ġverify":7852,"Ġlookups":7853,"}`;":7854,"Ġbigger":7855,"________":7856,"Ġframework":7857,"abcdefghijklmnopqrstuvwxyzABCDEFGHIJKLMNOPQRSTUVWXYZ":7858,"Ġ'*':":7859,"Ġpermute":7860,"figure":7861,"directory":7862,"equals":7863,"Ġ'-':":7864,"abcabcbb":7865,"Ġinterpreted":7866,"ĠExpress":7867,"Ġhyperlink":7868,"Ġobtained":7869,"Ġcluster":7870,"Ġterminate":7871,"spaces":7872,"Ġorganized":7873,"Ġstatistical":7874,"abbcc":7875,"HashMap":7876,"URRENT":7877,"delta":7878,"Ġanimals":7879,"ĠMarketing":7880,"ĠGraph":7881,"eighty":7882,"ĠPerl":7883,"flattened":7884,"twenty":7885,"Ġoctal":7886,"ĠPopulation":7887,"bubbleSort":7888,"sixty":7889,"Ġdistribution":7890,"Ġinclusive":7891,"Ġstopwords":7892,"ĠMultiply":7893,"Ġcomposed":7894,"Special":7895,"Population":7896,"Ġ\"/\"":7897,"Ġ'+':":7898,"ĠOtherwise":7899,"Oriented":7900,"Ġtrending":7901,"\\\":\\\"":7902,"ĠIncrement":7903,"fifty":7904,"merica":7905,"Ġsignificant":7906,"Ġcrash":7907,"seventy":7908,"thirty":7909,"Ġ'_'":7910,"Ġdeadline":7911,"Ġarchitecture":7912,"ajax":7913,"forty":7914,"Ġfifth":7915,"Ġlexicograph":7916,"ĠEXIST":7917,"ĠComplexNumber":7918,"ĠXMLHttpRequest":7919,"Ġsimultaneously":7920,"\"/":7921,"\"?":7922,"\"[":7923,"'#":7924,"(':":7925,"(([":7926,")*)":7927,"+\\":7928,",'":7929,"41":7930,"83":7931,"87":7932,">.":7933,">\");":7934,"BST":7935,"Buffer":7936,"Bundle":7937,"CB":7938,"Category":7939,"Coding":7940,"ED":7941,"Ele":7942,"Float":7943,"GPA":7944,"Greater":7945,"HEN":7946,"Iterate":7947,"LT":7948,"Layout":7949,"LIFO":7950,"Mode":7951,"Mongo":7952,"Next":7953,"NOW":7954,"Press":7955,"Rectangle":7956,"Same":7957,"TF":7958,"YOUR":7959,"]],":7960,"alist":7961,"cities":7962,"dical":7963,"equation":7964,"fri":7965,"gi":7966,"ious":7967,"kdir":7968,"manager":7969,"nt":7970,"oy":7971,"pdf":7972,"punct":7973,"rgb":7974,"sk":7975,"sure":7976,"sites":7977,"tren":7978,"your":7979,"zone":7980,"|--------":7981,"}|":7982,"Â°":7983,"ĠÂ":7984,"ĠLE":7985,"ĠQuery":7986,"ĠĠĠĠĠĊĠĠĠ":7987,"stor":7988,"Ġinv":7989,"Ġintelligence":7990,"Ġnn":7991,"Ġschool":7992,"decor":7993,"deviation":7994,"delimiter":7995,"rag":7996,"lies":7997,"like":7998,"ĠtoUpperCase":7999,"urces":8000,"alk":8001,"seats":8002,"utor":8003,"Ġ\":":8004,"Ġ\"@":8005,"Ġ\"${":8006,"rock":8007,"Ġeb":8008,"lore":8009,"unny":8010,"Ġmm":8011,"Ġmobile":8012,"Ġbranch":8013,"Ġ{},":8014,"third":8015,"Ġdir":8016,"ĠnumArray":8017,"ann":8018,"anish":8019,"Ġ';":8020,"esome":8021,"lab":8022,"rible":8023,"Ġgate":8024,"chor":8025,"teacher":8026,"Ġ(*":8027,"Ġ({":8028,"cestor":8029,"ublished":8030,"ĠPot":8031,"ĠPDF":8032,"verb":8033,"()];":8034,"ĠCl":8035,"ĠCreating":8036,"ĠCipher":8037,"ĠJanuary":8038,"Ġ#{":8039,"Ġwithdraw":8040,"Ġ=='":8041,"ĠTwo":8042,"ĠTuring":8043,"igure":8044,"ĠAverage":8045,"ĠAlice":8046,"Ġsequences":8047,"++];":8048,"ĠIter":8049,"ĠImplement":8050,"Ġteach":8051,"\":\".":8052,"consecutive":8053,"Ġmaxim":8054,"Ġbecomes":8055,"direction":8056,"Ġmeters":8057,"Ġmedical":8058,"resolve":8059,"ĠfindViewById":8060,"ĠWindow":8061,"ĠWins":8062,"Ġexc":8063,"Ġ66":8064,"istance":8065,"ĠMa":8066,"ĠMat":8067,"ĠMod":8068,"ĠMonth":8069,"ĠMNIST":8070,"ĠHandle":8071,"React":8072,"('<":8073,"ĠinputList":8074,"ĠOver":8075,"ĠOption":8076,"Ġ73":8077,"ĠBlog":8078,"])]":8079,"tember":8080,"Ġrout":8081,"Ġgetting":8082,"ĠgetArea":8083,"mysqli":8084,"neighbors":8085,"Ġleaf":8086,"pare":8087,"Ġdiagonal":8088,"Condition":8089,"ĠLeven":8090,"Ġdob":8091,"Ġdoc":8092,"Ġdoing":8093,"android":8094,"Ġ/^[":8095,"Ġ/^(([":8096,"dates":8097,"ĠES":8098,"ĠError":8099,"classifier":8100,"amming":8101,"venue":8102,"Ġoutcome":8103,"ĠStringBuffer":8104,"illary":8105,"Course":8106,"ĠtotalScore":8107,"Ġshuff":8108,"Ġsources":8109,"rowser":8110,"ĠInformation":8111,"Ġwebsites":8112,"Ġunexpected":8113,"ĠsortedArr":8114,"December":8115,"ĊĉĠĠĠĠĠĠĠ":8116,"ffff":8117,"constant":8118,"Ġheadline":8119,"Ġupdating":8120,"2019":8121,"ĠstudentId":8122,"ĠrightIndex":8123,"randomString":8124,"Ġlive":8125,"Ġlimited":8126,"emails":8127,"ĠNOW":8128,"Ġwhole":8129,"1111":8130,"Subsequence":8131,"Ġtrailing":8132,"ToArray":8133,"Ġmodal":8134,"Ġmodulus":8135,"Ġexecutes":8136,"Ġhandwritten":8137,"OfP":8138,"Ġconstructors":8139,"Ġinterfaces":8140,"sides":8141,"isect":8142,"Ġfemale":8143,"tributes":8144,"Ġtransl":8145,"Ġtransaction":8146,"Ġlogged":8147,"statement":8148,"ĠExcel":8149,"prices":8150,"ississ":8151,"Ġ\\\\\\":8152,"Ġdetects":8153,"Ġvalidates":8154,"Ġ?>":8155,"Ġamounts":8156,"\"})":8157,"ĠIDs":8158,"``.":8159,"Ġqueues":8160,"ĠEnc":8161,"Ġ456":8162,"ĠĠĠĠĠĠĠĠĠĠĠĠĠĠĠĠĠĠĠĠĠĠĠĠ":8163,"ĠTokyo":8164,"Ġexecutable":8165,"Thread":8166,"parseInt":8167,";\"></":8168,"\"))@":8169,"createServer":8170,"+------------+--------":8171,"Combin":8172,"Ġgeneral":8173,"ĠFirstName":8174,"ĠinsertionSort":8175,"Ġrectangular":8176,"ĠaccountNumber":8177,"Ġbalanced":8178,"Ġnumerator":8179,"ĠLastName":8180,"highlight":8181,"Ġraised":8182,"alphabetical":8183,"Ġ\"<<":8184,"=$((":8185,"Ġgoing":8186,"divisors":8187,"ronym":8188,"Ġkeeps":8189,"Method":8190,"baz":8191,"intersection":8192,"ĠQuicksort":8193,"Ġengineering":8194,"Ġarticles":8195,"('/',":8196,"Ġretrieves":8197,"ĠItems":8198,"Ġthrown":8199,"Ġinitialise":8200,"Ġinitialized":8201,"Ġincreases":8202,"Ġindicates":8203,"assign":8204,"ĠReverseString":8205,"Ġscalar":8206,"Ġbehaviors":8207,"Ġmanipulation":8208,"Ġscrape":8209,"repeat":8210,"Ġprocedural":8211,"Ġfunctionality":8212,"reshape":8213,"Ġdecisions":8214,"nologies":8215,"ĠMaximum":8216,"package":8217,"traversal":8218,"Ġfinish":8219,"Ġfinished":8220,"Ġpolymorphism":8221,"ĠTypeError":8222,"ippi":8223,"Ġtweepy":8224,"Ġchecked":8225,"ĠDeclare":8226,"Ġpublished":8227,"ĠCurrent":8228,"Ġlooking":8229,"predictions":8230,"Ġdeleting":8231,"ĠUNI":8232,"Ġperiods":8233,"@\\\"]+":8234,"English":8235,"(\",\")":8236,"ominator":8237,"Ġdollars":8238,"George":8239,"Ġinvoked":8240,"Ġencapsulation":8241,"Ġasynchronous":8242,"dlroW":8243,"sports":8244,"14159":8245,"Url":8246,"ĠScala":8247,"September":8248,"ĠRandomForestClassifier":8249,"jection":8250,"ĠFurthermore":8251,"ĠGraphQL":8252,"ĠEXISTS":8253,")*)|":8254,"ĠPotter":8255,"ĠLevenshtein":8256,"ississippi":8257,"!',":8258,"\"+":8259,"$.":8260,"(!":8261,"(.*":8262,")(":8263,".âĢĿ":8264,"/;":8265,"/</":8266,"150":8267,"3000":8268,"=[]":8269,"?(":8270,"Av":8271,"Ada":8272,"Accuracy":8273,"Box":8274,"DISTINCT":8275,"Func":8276,"Go":8277,"IOU":8278,"Jon":8279,"Joe":8280,"July":8281,"LA":8282,"Mat":8283,"Man":8284,"MAX":8285,"Mich":8286,"Median":8287,"November":8288,"OL":8289,"OS":8290,"PU":8291,"Right":8292,"Space":8293,"TC":8294,"Task":8295,"TIME":8296,"When":8297,"[^\\":8298,"]++;":8299,"_.+":8300,"bu":8301,"bst":8302,"bust":8303,"bits":8304,"bracket":8305,"cery":8306,"cloud":8307,"eks":8308,"go":8309,"gpa":8310,"github":8311,"house":8312,"ipping":8313,"iki":8314,"lr":8315,"mble":8316,"mand":8317,"oc":8318,"oct":8319,"ote":8320,"pg":8321,"pis":8322,"payment":8323,"principal":8324,"ratic":8325,"sWith":8326,"sleep":8327,"tend":8328,"twe":8329,"uk":8330,"yota":8331,"|------":8332,"ĠHel":8333,"Ġris":8334,"ining":8335,"iness":8336,"Ġalist":8337,"Ġtxt":8338,"recurs":8339,"strap":8340,"styles":8341,"strawberry":8342,"atter":8343,"ony":8344,"oned":8345,"onload":8346,"Ġcap":8347,"Ġcloud":8348,"Ġtheta":8349,"Ġimag":8350,"Ġfront":8351,"Ġinp":8352,"Ġinfo":8353,"Ġinfix":8354,"Ġnormal":8355,"umidity":8356,"arity":8357,"Ġslic":8358,"Ġsensor":8359,"detect":8360,"Ġpin":8361,"Ġpull":8362,"Ġpalindromic":8363,"Ġrefer":8364,"Ġrecomm":8365,"rases":8366,"limin":8367,"Ġtow":8368,"mel":8369,"met":8370,"Ġang":8371,"utral":8372,"Ġ\"'":8373,"rove":8374,"Ġed":8375,"Ġeat":8376,"Ġelimin":8377,"Ġmis":8378,"Ġmana":8379,"Ġmorse":8380,"Ġbrand":8381,"Ġborn":8382,"Ġreturning":8383,"Ġdriver":8384,"Ġdark":8385,"Ġ'!":8386,"Ġ'$":8387,"Ġ'))":8388,"Ġ'');":8389,"Ġ'').":8390,"lazy":8391,"riority":8392,"tech":8393,"Ġ(%":8394,"Ġ011":8395,"Ġvide":8396,"isset":8397,"ĠST":8398,"Ġstdev":8399,"Ġ53":8400,"ĠPI":8401,"icode":8402,"pto":8403,"ĠCor":8404,"ĠCloud":8405,"ifted":8406,"oto":8407,"otate":8408,"otstrap":8409,"Ġhistogram":8410,"Ġhundred":8411,"ythag":8412,")).":8413,"ĠALL":8414,"ĠNetwork":8415,"getDay":8416,"getFull":8417,"Ġsep":8418,"Ġsecurity":8419,"cope":8420,"ĠmaxDepth":8421,"ĊĠĠĠĠĠĠĠĠĠĠĠĠĠĠĠĠĠĠ":8422,"Ġbeautiful":8423,"ought":8424,"vegetable":8425,"ĠfindSum":8426,"ĠĊĊĠĠĠĠĠĠĠĠĠĠĠ":8427,"ĠonCreate":8428,"Ġnewnode":8429,"ĠDB":8430,"ĠDistance":8431,"zebra":8432,"Ġloading":8433,"ĠcountVowels":8434,"ĠHi":8435,"('{":8436,"(''.":8437,"ĠOrange":8438,"Ġ71":8439,"Ġorig":8440,"ĠBasic":8441,"ĠBooks":8442,"])/":8443,"ĠageSELECT":8444,"orean":8445,"Ġroom":8446,"ĠgetData":8447,"Initialize":8448,"Ġ96":8449,"mploy":8450,"Ġleading":8451,"Ġlevels":8452,"perm":8453,"ĠLamb":8454,"ftp":8455,"oston":8456,"upon":8457,"plan":8458,"ĠcalculateSum":8459,"features":8460,"encies":8461,"encrypt":8462,"Ġparsing":8463,"Ġshopping":8464,"Ġdiscriminant":8465,"ĠInitial":8466,"currency":8467,"ĠlongestCommon":8468,"};#":8469,"Ġdivs":8470,"127":8471,"ĠGreeting":8472,"ĠGUI":8473,"tric":8474,"Ġheadlines":8475,"properties":8476,"ĠsecondNumber":8477,"parameters":8478,"short":8479,"!\"#":8480,"varchar":8481,"Store":8482,"Ġcorrel":8483,"Entry":8484,"ĠmostFrequent":8485,"Ġdecoder":8486,"Ġtests":8487,"Ġtested":8488,"Ġabc":8489,"cessor":8490,"STRING":8491,"obser":8492,"ginal":8493,"ĠDoublyLinkedList":8494,"Ġreport":8495,"Ġmodules":8496,"DOM":8497,"Anna":8498,"Ġextracting":8499,"\\.-":8500,"\\.-]+":8501,"]+\\.)+[":8502,"Ġintervals":8503,"capacity":8504,"CharField":8505,"preprocessing":8506,"Ġenqueue":8507,"Ġreadability":8508,"evens":8509,"Bytes":8510,"Ġtrim":8511,"ĠupperCase":8512,"Ġfiltering":8513,"News":8514,"osition":8515,"replaceAll":8516,"Paris":8517,"Ġincrements":8518,"Ġpopulous":8519,"ĠĊĠĠĠĠĠĠĠĠĠĠĠĠĠĠĠĠĠĠ":8520,"Ġpalindromes":8521,"Ġlogistic":8522,"Quick":8523,"Quantity":8524,"Ġterrible":8525,"jective":8526,"Ġdepartments":8527,"ĠChecking":8528,"ĠvalidateEmail":8529,"Ġ?></":8530,"zedTree":8531,"Ġjavax":8532,"({'":8533,"ĠlinearSearch":8534,"4567":8535,"Controller":8536,"gregate":8537,"Ġbuckets":8538,"ĠoriginalNumber":8539,"Ġimperative":8540,"means":8541,"Than":8542,"resta":8543,"ĠrevStr":8544,"Ġundo":8545,"Ġdivides":8546,"'}]":8547,"large":8548,"ÂłÂłÂłÂł":8549,"Ġsphere":8550,"ĠObjects":8551,"Ġsignal":8552,"Ġnumerals":8553,"Minutes":8554,"overflow":8555,"Temp":8556,"Teams":8557,"333":8558,"4444":8559,"ĠMemory":8560,"rolled":8561,"ĠDemo":8562,"udy":8563,"Ġtracking":8564,"Ġgoes":8565,"wards":8566,"kiwi":8567,"udoku":8568,"Ġclicks":8569,"Ġpartitioning":8570,"mongodb":8571,"Ġengineer":8572,"Ġpackages":8573,"raping":8574,"Ġoptional":8575,"Ġ\".$":8576,"Ġlookup":8577,"CEDU":8578,"Ġmarkup":8579,"naive":8580,"(\"*\");":8581,"Ġevaluation":8582,"ABCDEFGHIJKLMNOPQRSTUVWXYZabcdefghijklmnopqrstuvwxyz":8583,"ĠCacheNode":8584,"CustomerID":8585,"Ġterminal":8586,"Ascending":8587,"]?[":8588,"Programming":8589,"aeiouAE":8590,"ĠOnce":8591,"Ġ'/':":8592,"Ġbitwise":8593,"animals":8594,"updated":8595,"Ġdropdown":8596,"WWWWWWWW":8597,"Multiply":8598,"Ġdistributed":8599,"MOV":8600,"Ġcomposite":8601,"Ġrecognize":8602,"Ġallocated":8603,"merged":8604,"Ġstylesheet":8605,"Ġcommunication":8606,"ĠRecursively":8607,"Ġdescribes":8608,"ccurences":8609,"ĠCharact":8610,"Ġasterisks":8611,"Ġcycle":8612,"ĠBinarySearchTree":8613,"Callback":8614,"ĠTemperature":8615,"Department":8616,"Ġbroken":8617,"Ġhierarchical":8618,"Ġleaks":8619,"symbols":8620,"guments":8621,"legend":8622,"Ġpreser":8623,"Ġderived":8624,"ĠPROCEDU":8625,"Ġdependencies":8626,"Ġpredecessor":8627,"ĠVariables":8628,"allenge":8629,"decoration":8630,"ĠUNIQUE":8631,"_.+-]+@[":8632,"Ġcapable":8633,"ythagorean":8634,"getFullYear":8635,"aeiouAEIOU":8636,"ĠPROCEDURE":8637,"!=":8638,"$\"":8639,"%\"":8640,"%,":8641,")\\.":8642,"+------":8643,",$":8644,".\",":8645,"2000":8646,"46":8647,"400":8648,"678":8649,"82":8650,"84":8651,"88":8652,"92":8653,":[":8654,"=[\"":8655,"AD":8656,"Aut":8657,"Amount":8658,"Bubble":8659,"Books":8660,"Card":8661,"Circle":8662,"Cipher":8663,"Factorial":8664,"Highest":8665,"Ju":8666,"Jim":8667,"LP":8668,"La":8669,"Most":8670,"Normalize":8671,"Off":8672,"Pear":8673,"Rad":8674,"Roman":8675,"SV":8676,"San":8677,"Squares":8678,"TO":8679,"TER":8680,"[('":8681,"\\_":8682,"\\\",":8683,"\\[[":8684,"]\"":8685,"]})":8686,"ael":8687,"ament":8688,"ags":8689,"build":8690,"bayes":8691,"cial":8692,"cube":8693,"dw":8694,"dy":8695,"fn":8696,"gy":8697,"hobbies":8698,"iris":8699,"land":8700,"normalize":8701,"pr":8702,"say":8703,"science":8704,"src":8705,"savedInstanceState":8706,"scope":8707,"tod":8708,"town":8709,"turtle":8710,"udio":8711,"vid":8712,"yg":8713,"yling":8714,"zon":8715,"|(([":8716,"}};":8717,"ĊĊĠĠĠĠ":8718,"ĊĊĉ":8719,"inforce":8720,"Ġaes":8721,"Ġaccur":8722,"states":8723,"hes":8724,"enance":8725,"atbot":8726,"onCreate":8727,"Ġcross":8728,"Ġiris":8729,"Ġfar":8730,"Ġfri":8731,"Ġfac":8732,"Ġfmt":8733,"Ġfurther":8734,"Ġinches":8735,"Ġinjection":8736,"ummy":8737,"Ġslice":8738,"Ġsitu":8739,"ĠsavedInstanceState":8740,"Ġpers":8741,"Ġpred":8742,"Ġpdf":8743,"Ġreas":8744,"Ġreorder":8745,"Ġreferences":8746,"raft":8747,"lian":8748,"stru":8749,"Ġanom":8750,"sequ":8751,"Ġ\"{":8752,"Ġ\"!\"":8753,"ents":8754,"entry":8755,"Ġwra":8756,"Ġwins":8757,"intext":8758,"losed":8759,"unch":8760,"Ġmight":8761,"Ġbark":8762,"Ġbatch":8763,"Ġbuffer":8764,"Ġ{$":8765,"Ġ{**":8766,"Ġcoin":8767,"Ġdx":8768,"listOf":8769,"Ġarbit":8770,"ĠisEven":8771,"Ġ20000":8772,"Ġ[(\"":8773,"Ġ[],":8774,"Ġ[['":8775,"teams":8776,"Ġ01":8777,"cefully":8778,"Ġve":8779,"Ġlat":8780,"ĠĊĠĠĠĊĠĠ":8781,"ĠSu":8782,"ĠSto":8783,"ĠScore":8784,"ĠprintList":8785,"Ġalong":8786,"Ġ59":8787,"Ġ5000":8788,"ĠPM":8789,"Ġprofit":8790,"Ġconversion":8791,"ĊĠĠĉ":8792,"()'":8793,"ĠCA":8794,"iform":8795,"ĠJack":8796,"ĠJoin":8797,"ĠJTextField":8798,"htable":8799,"Ġ100000":8800,"forward":8801,"ĠTech":8802,"(\"\")":8803,"(\"\\\\":8804,"lette":8805,"ĠFib":8806,"ĠFizz":8807,"ĠFOR":8808,"Ġhistory":8809,"Ġchun":8810,"Ġresol":8811,"activity":8812,"))[":8813,"))$/;":8814,"ĠAmerica":8815,"asis":8816,"asList":8817,"Ġsemi":8818,"complete":8819,"coupon":8820,"edit":8821,"edge":8822,"confirm":8823,"ĠmaxSum":8824,"ĊĠĠĠĠĠĠĠĠĠĠĠĠĠĠĠĠ":8825,"ublication":8826,"ĠwordCount":8827,"Ġ81":8828,"Ġ82":8829,"Ġ68":8830,"ineapple":8831,"ĠDavid":8832,"\">#":8833,"Ġloaded":8834,"ĠHAVING":8835,"akes":8836,"ĠOut":8837,"Ġ74":8838,"ĠBanana":8839,"ĠBlue":8840,"])|(([":8841,"Ġrobust":8842,"Ġgetters":8843,"ĠgetId":8844,"ĠgetFirst":8845,"ĠgetAddress":8846,"mycursor":8847,"Ġkeywords":8848,"Ġcomplement":8849,"Ġcompress":8850,"Ġsetter":8851,"ĠsetTime":8852,"ĠLatin":8853,"osthen":8854,"uples":8855,"abcc":8856,"ablished":8857,"Ġbeta":8858,"ĠcalculateAverage":8859,"ĠmyDict":8860,"amond":8861,"ĠminMax":8862,"feed":8863,"ĠStrings":8864,"dicts":8865,"Ġpaid":8866,"Lists":8867,"addr":8868,"addition":8869,"ills":8870,"encoder":8871,"Ġparams":8872,"Ġshown":8873,"toArray":8874,"tokens":8875,"ĠRegex":8876,"players":8877,"Ġdisks":8878,"ĠgenerateRandom":8879,"Ġkind":8880,"Ġkelvin":8881,"Ġattack":8882,"ĠInterest":8883,"ights":8884,"ĠdateTime":8885,"Ġunne":8886,"ifferent":8887,"Ġpreorder":8888,"Ġperformed":8889,"Ġdisplayed":8890,"sonants":8891,"ĠGe":8892,"ĠGit":8893,"ĠGener":8894,"ĠGradient":8895,"ĠstudentName":8896,"ĠconvertTo":8897,"minimum":8898,"minIndex":8899,"ĠValid":8900,"([\\":8901,"Ġoverri":8902,"Ġoverlapping":8903,"Ġ111":8904,"},{":8905,"arnings":8906,"Ġthroughout":8907,"leftIndex":8908,"Status":8909,"Ġcorpus":8910,"userData":8911,"cating":8912,"Ġregard":8913,"reads":8914,"ĠuniqueArray":8915,"Ġgracefully":8916,"ĊĠĠĠĠĠĠĊĠĠĠĠĠ":8917,"Ġtrace":8918,"Toggle":8919,"âĢĿ]":8920,"((\\[[":8921,"Dataset":8922,"ĠstackArray":8923,"Ġoccurring":8924,"Ġdeploy":8925,"ĠKing":8926,"ĠKeep":8927,"10000":8928,"Ġhandled":8929,"ĠinsertRec":8930,"ĠProcess":8931,"Ġextracted":8932,"Ofs":8933,"Ġassist":8934,"Ġtopic":8935,"Ġalphabetic":8936,"previous":8937,"Ġenrolled":8938,"Ġ\",\"":8939,"Ġmonthly":8940,"TextView":8941,"ĠAnother":8942,"Ġapprox":8943,"latin":8944,"Ġtransposed":8945,"XXX":8946,"Ġcombining":8947,"Ġ\\(":8948,"Ġtrying":8949,"ĊĉĉĠ":8950,"ĠSelect":8951,"Ġnoun":8952,"Ġnothing":8953,"Ġjavascript":8954,"999":8955,"vectorizer":8956,"ĠSets":8957,"Ġdefining":8958,"Ġbuy":8959,"ĠApplication":8960,"Load":8961,"Location":8962,"168":8963,"acency":8964,"Ġshowing":8965,"ĠFinds":8966,"Ġheapq":8967,"Ġheapsort":8968,"Weather":8969,"Week":8970,"Ġclub":8971,"Ġtechnologies":8972,"Ġrelation":8973,"Ġthreading":8974,"Ġrotated":8975,"Service":8976,"Servlet":8977,"Ġevents":8978,"Ġgeneric":8979,"Ġ12345":8980,"[\\]":8981,"Alter":8982,"ĠTesting":8983,"vantages":8984,"fibo":8985,"fibList":8986,"Ġedits":8987,"Carrot":8988,"mnist":8989,"aderboard":8990,"Ġforest":8991,"Ġincremented":8992,"Lastname":8993,"Ġinstrument":8994,"TitleCase":8995,"ĠunsortedList":8996,"ContentView":8997,"Ġxmltod":8998,"ĠISO":8999,"ĠUniversity":9000,"ĠĊĉĉĉĉ":9001,"aaaa":9002,"Ġoffset":9003,"Armstrong":9004,"svg":9005,"Ġkeeping":9006,"CESS":9007,"Shape":9008,"Success":9009,"Ġpygame":9010,"Ġmaintenance":9011,"Ġneighbor":9012,"Ġdelta":9013,"Ġmarket":9014,"Ġapplying":9015,"fied":9016,"Ġ'*'":9017,"Ġreceives":9018,"Ġexponential":9019,"}\\])|(([":9020,"Ġscalability":9021,"Ġfailed":9022,"Activation":9023,"]?\\":9024,"Ġhostname":9025,"Website":9026,"(?:[":9027,"BinaryTree":9028,"Ġpowers":9029,"Ġhumidity":9030,"ĠRegression":9031,"ISBN":9032,"Ġexplode":9033,"ĠPerform":9034,"Ġdimensions":9035,"FFFFFF":9036,"Ġpublisher":9037,"ĠCommon":9038,"ĠWordPress":9039,"Distance":9040,"FizzBuzz":9041,"Occurrence":9042,"Expression":9043,"Ġcommunicate":9044,"Ġtabular":9045,"Ġdecrement":9046,"Ġsatisf":9047,"Ġsatisfied":9048,",}))$/;":9049,"polarity":9050,"Ġpractice":9051,"Ġunderscores":9052,"Ġfeedback":9053,"France":9054,"Improve":9055,"Ġpromise":9056,"Ġimmediately":9057,"ĠStructure":9058,"nlogn":9059,"Ġoppo":9060,"Ġcreation":9061,"Green":9062,"ĠTwitter":9063,"ĠLibrary":9064,"Ġsyntactically":9065,"Ġcrashing":9066,"Ġlexicographically":9067,"MongoClient":9068,"trends":9069,"OfPublication":9070,"\"))@((\\[[":9071,"(.*?":9072,"Michael":9073,"tendance":9074,"Ġrisk":9075,"stylesheet":9076,"riorityQueue":9077,"ĠLambda":9078,"observers":9079,"ĠCharacter":9080,"inforcement":9081,"osthenes":9082,"Ġxmltodict":9083,"!âĢĿ":9084,"\"^[":9085,"*\\":9086,",))":9087,",}$":9088,".<":9089,"/(":9090,"/',":9091,"/\">":9092,"53":9093,"65":9094,"71":9095,"91":9096,";#":9097,">',":9098,">\".":9099,"?$":9100,"?^":9101,"AP":9102,"Are":9103,"Boolean":9104,"Btn":9105,"Cost":9106,"Dan":9107,"EE":9108,"Est":9109,"Ford":9110,"Fact":9111,"Filter":9112,"Give":9113,"IGH":9114,"Jan":9115,"Mid":9116,"MTP":9117,"Match":9118,"NG":9119,"Na":9120,"NUM":9121,"PM":9122,"Power":9123,"Sing":9124,"Sand":9125,"Sensor":9126,"SUM":9127,"Science":9128,"Solve":9129,"Ter":9130,"Ten":9131,"Target":9132,"Trace":9133,"Validate":9134,"Verb":9135,"Writer":9136,"[{":9137,"[['":9138,"_+":9139,"_;":9140,"_]+":9141,"az":9142,"aches":9143,"blog":9144,"brand":9145,"buzz":9146,"bananas":9147,"between":9148,"cip":9149,"coding":9150,"dark":9151,"eff":9152,"fs":9153,"favorite":9154,"greatest":9155,"gba":9156,"ha":9157,"horse":9158,"happy":9159,"hysics":9160,"ias":9161,"jumps":9162,"jump":9163,"kg":9164,"lse":9165,"llo":9166,"ourn":9167,"pm":9168,"pray":9169,"pad":9170,"sb":9171,"sin":9172,"scatter":9173,"tx":9174,"tar":9175,"tmp":9176,"too":9177,"tasks":9178,"uck":9179,"vance":9180,"vader":9181,"}&":9182,"}\",":9183,"´âĶĢâĶĢâĶĢâĶĢâĶĢâĶĢâĶĢâĶĢâĶ":9184,"ĊĊĠĠĠĠĠĠĠĠĠĠĠĠĠĠĠ":9185,"Ġge":9186,"ĠÃĹ":9187,"ĠĠĊĠĠĠĠĠ":9188,"inp":9189,"inverse":9190,"ĠĠĠĠĊĠ":9191,"Ġaway":9192,"Ġtens":9193,"ĠĠĠĊĠĠĠĠĠĠĠ":9194,"repo":9195,"sto":9196,"stit":9197,"erging":9198,"ato":9199,"atient":9200,"Ġ=[":9201,"onda":9202,"Ġclf":9203,"ĊĠĠĠĠĊĠĠĠĠĠĠĠ":9204,"ĊĠĠĠĠĊĠ":9205,"arithmetic":9206,"Ġsite":9207,"Ġsending":9208,"Ġscikit":9209,"Ġsizes":9210,"Ġpig":9211,"Ġpayments":9212,"Ġredo":9213,"ctive":9214,"lied":9215,"lief":9216,"Ġanchor":9217,"alth":9218,"sec":9219,"seen":9220,"Ġ\"_":9221,"rote":9222,"router":9223,"Ġoffer":9224,"Ġwin":9225,"Ġwent":9226,"Ġwind":9227,"Ġwrote":9228,"Ġeating":9229,"los":9230,"ĊĠÂłĠÂłĠÂłĠÂłĠ":9231,"uni":9232,"Ġmix":9233,"Ġbel":9234,"Ġ{:.":9235,"Ġduration":9236,"Ġ'--":9237,"Ġ'('":9238,"esian":9239,"rie":9240,"Ġthings":9241,"ulative":9242,"Ġgives":9243,"eline":9244,"elhi":9245,"Ġ+\"":9246,"Ġvehicle":9247,"isa":9248,"ĠSc":9249,"ĠSquare":9250,"Ġuuid":9251,"Ġupto":9252,"olymorphism":9253,"Ġprintln":9254,"ublisher":9255,"ĠarraySize":9256,"Ġ52":9257,"ĠPush":9258,"ĠPythagorean":9259,"Ġprof":9260,"Ġprop":9261,"Ġmales":9262,"Ġconquer":9263,"pport":9264,"icult":9265,"ĊĠĠĊ":9266,"pter":9267,"ĠCoding":9268,"ĠCatcher":9269,"ĠCPU":9270,"idend":9271,"Ġ108":9272,"ĠTom":9273,"mazon":9274,"iguous":9275,"otient":9276,"(\"\").":9277,"ĠFe":9278,"ĠFit":9279,"ĠFlatten":9280,"ĠFetch":9281,"ĠFruit":9282,"peak":9283,"Ġhh":9284,"Ġhad":9285,"Ġhover":9286,"Ġnear":9287,"Ġchatbot":9288,"enght":9289,"english":9290,"ĠAL":9291,"ĠAb":9292,"ĠAir":9293,"ĠApa":9294,"ĠNext":9295,"getroot":9296,"Ġseed":9297,"Ġsections":9298,"coins":9299,"cookie":9300,"edy":9301,"Ġsummary":9302,"Ġxhttp":9303,"Ġdescript":9304,"Ġteacher":9305,"Ġasks":9306,"Ġstrate":9307,"Ġstrip":9308,"Ġbecome":9309,"Ġclassified":9310,"usr":9311,"Ġareas":9312,"ĠMar":9313,"apping":9314,"ĠDay":9315,"ĠDFS":9316,"ĠcountWords":9317,"ĠHat":9318,"Refactor":9319,"Ġ72":9320,"Ġ76":9321,"Ġ77":9322,"ĠBob":9323,"outer":9324,"Ġrock":9325,"Ġrounded":9326,"Ġgetter":9327,"ĠSQLite":9328,"myInput":9329,"neg":9330,"never":9331,"Ġnotification":9332,"perms":9333,"Ġcurly":9334,"ĠsetAddress":9335,"ĠsetContentView":9336,"ĠLayout":9337,"ĠLCS":9338,"[][":9339,"Ġlab":9340,"')\">":9341,"sums":9342,"exit":9343,"exas":9344,"ĠEven":9345,"ĠEdit":9346,"ĠElse":9347,"abilities":9348,"Ġsubarr":9349,"structor":9350,"Ġmytable":9351,"Ġmyfunc":9352,"ĠuserInput":9353,"comments":9354,"Ġmining":9355,"ĠTherefore":9356,"encil":9357,"encrypted":9358,"ileage":9359,"Ġparalle":9360,"Ġshadow":9361,"Ġshifted":9362,"collapse":9363,"lectron":9364,"ials":9365,"Ġsound":9366,"\"].":9367,"Ġtimeline":9368,"ĠRust":9369,"ĠRye":9370,"Ġkv":9371,"Ġattemp":9372,"ART":9373,"ĠUK":9374,"ĠUt":9375,"ĠreverseList":9376,"Ġuniq":9377,"nextLine":9378,"Ġpreferences":9379,"Ġperms":9380,"mainloop":9381,"ĊĉĊĠĠĠ":9382,"ĊĉĠĠĠĠĠĠĠĠĠĠĠ":9383,"Ġdividend":9384,"ĠGame":9385,"ĠGreat":9386,"ĠGats":9387,"miner":9388,"Ġscripting":9389,"prop":9390,"progress":9391,"ĠView":9392,"Ġcontiguous":9393,"Ġevens":9394,"rectangle":9395,"vise":9396,"Ġoverride":9397,"pyramid":9398,"help":9399,"dob":9400,"Ġoperand":9401,"sha":9402,"Ġfoc":9403,"Style":9404,"ATION":9405,"ynomial":9406,"Ending":9407,"chedu":9408,"ĠdecTo":9409,"***":9410,"starting":9411,"Sequence":9412,"gination":9413,"ĠDocker":9414,"SubValue":9415,"Ġ`${":9416,"ĠcontentPane":9417,"Toyota":9418,"Ġsmtp":9419,"Ġdescent":9420,"Ġmodulo":9421,"jsonObject":9422,"belief":9423,"white":9424,"ĠReactJS":9425,"Ġmoved":9426,"Ġmergesort":9427,"ĠgradeValue":9428,"Attributes":9429,"ducing":9430,"ĠFormat":9431,"ĠfrequencyMap":9432,"cache":9433,"sidebar":9434,"Ġreading":9435,"Ġcorrectness":9436,"Apples":9437,"IndexOf":9438,"Ġscen":9439,"compute":9440,"company":9441,"compound":9442,"computer":9443,"Ġtransformation":9444,"Ġtranslate":9445,"Parameters":9446,"ĠĊĠĠĠĠĠĠĠĠĠĠĠĠĠĠĠĠĠ":9447,"Ġtyping":9448,"Ints":9449,"locations":9450,"ALSE":9451,"ALTER":9452,"ĠĊĉĉĊĉ":9453,"contin":9454,"192":9455,"tics":9456,"Ġvisible":9457,"ĠTableB":9458,"ĠDateTime":9459,"ĠSelection":9460,"Ġlesser":9461,"Ġpersons":9462,"ĠMainActivity":9463,"Ġrepeats":9464,"Ġparameterized":9465,"Ġidentifying":9466,":]):":9467,"ĠĊĠĠĠĠĠĠĠĠĊĠĠĠ":9468,"ĠĊĠĠĠĠĠĠĠĠĠĠĊĠĠĠ":9469,"eroDivision":9470,"validation":9471,"Ġsplits":9472,"odds":9473,"Doc":9474,"rtificial":9475,"ĠEnqueue":9476,"yyy":9477,"Ġcache":9478,"Ġcausing":9479,"Local":9480,"ĠToken":9481,"Thank":9482,"ormalized":9483,"TreeNode":9484,"âķĲâķĲâķĲâķĲâķ":9485,"Ġscored":9486,".*;":9487,"Ġconsider":9488,"Ġtechnology":9489,"ĠMongoClient":9490,"ĠmergedList":9491,"exports":9492,"ĠcopyOfs":9493,"Ġgroups":9494,"ports":9495,"Ġsuperclass":9496,"ĊĠĠĠĠĠĠĠĠĠĠĠĠĠĠĠĠĠĠĠĠĠĠĠĠĠĠĠ":9497,"Ġadjacency":9498,"Ġfourth":9499,"views":9500,"Alpha":9501,"Ġconcatenated":9502,"Ġpreviously":9503,"Tech":9504,"Ġrace":9505,"Ġphrases":9506,"Ġeditor":9507,"alphabetically":9508,"Grape":9509,"Ġprimit":9510,"ĠfilteredArray":9511,"Ġbuilding":9512,"ĠDeveloper":9513,"Testing":9514,"Ġobserver":9515,"Ġgoal":9516,"ĠParis":9517,"ĠExamples":9518,"LastName":9519,"Ġsupported":9520,"Divide":9521,"Ġbugs":9522,"ĠIPv":9523,"Ġinherits":9524,"ĠSumOf":9525,"requests":9526,"ĠArgs":9527,"(`${":9528,"Ġaliqu":9529,"ĠfullName":9530,"Ġstarted":9531,"Starting":9532,"region":9533,"ĠTextView":9534,"ĠclosestPair":9535,"such":9536,"svm":9537,"desc":9538,"Ġconstants":9539,"contacts":9540,"Ġutility":9541,"Ġ$(($":9542,"Ġcompiled":9543,"Ġinitialization":9544,"Ġawesome":9545,"Ġreceived":9546,"argument":9547,"Ġ'-'":9548,"Ġresource":9549,"ĠCollection":9550,"ĠMovie":9551,"afari":9552,"Ġcategorize":9553,"ĠsayHello":9554,"ĠZeroDivision":9555,"tracking":9556,"Ġauxillary":9557,"atermel":9558,"Ġipsum":9559,"Ġrespond":9560,"Ġorganize":9561,"weathermap":9562,"etail":9563,"clear":9564,"urants":9565,"Ġestablish":9566,"Ġestablished":9567,"ĠGrade":9568,"Ġserialize":9569,"ĠserializedTree":9570,"Ġauthenticate":9571,"âĶĢâĶĢâĶĢâĶĢâĶĢâĶĢâĶĢâĶĢâĶĢâĶ":9572,"MODE":9573,"Ġfewer":9574,"Ġjustify":9575,"Ġallocate":9576,"Occurrences":9577,"hope":9578,"Ġpadx":9579,"Ġpady":9580,"Ġalternating":9581,"ĠDivide":9582,"Engine":9583,"Ġdescribing":9584,"imaginary":9585,"Ġwidely":9586,"Ġmagnitude":9587,"Ġhomepage":9588,"ccurence":9589,"ĠVisual":9590,"Ġasterisk":9591,"Ġreusable":9592,"Ġreusability":9593,"Ġlocations":9594,"Ġlocated":9595,"Ġunderscore":9596,"Ġinspect":9597,"Ġexactly":9598,"Ġtriplets":9599,"+-----------+":9600,"+-----------+-----------+":9601,"Failed":9602,"Ġideal":9603,"Ġquadratic":9604,"numeral":9605,"supervised":9606,"Question":9607,"Why":9608,"ĠWhile":9609,"Ġcheckboxes":9610,"ĠAppCompatActivity":9611,"Ġmultithreaded":9612,"Extend":9613,"purpose":9614,"Ġblank":9615,"Ġarranged":9616,"Ġsequentially":9617,"Ġ8601":9618,"ToDecimal":9619,"Ġebx":9620,"ĠMale":9621,"assigned":9622,"Manip":9623,"recursive":9624,"Ġslicing":9625,"Ġmanaging":9626,"Ġsituation":9627,"Ġarbitrary":9628,"ĠFizzBuzz":9629,"Terms":9630,"Ġbelong":9631,"ĠApache":9632,"ĠGatsby":9633,"ĠZeroDivisionError":9634,"!';":9635,"'{":9636,"(()":9637,")#":9638,")%":9639,")\\":9640,")</":9641,"+(":9642,"+\",":9643,"+([":9644,"-+":9645,".\\":9646,".');":9647,"/:":9648,"/?":9649,"/^[":9650,":,":9651,"=%":9652,"=<":9653,">&":9654,">\")":9655,"?:\\/\\/":9656,"Amy":9657,"Bin":9658,"Ber":9659,"Big":9660,"Bot":9661,"Background":9662,"Bottom":9663,"CO":9664,"CON":9665,"CamelCase":9666,"Copy":9667,"Done":9668,"Dynamic":9669,"Details":9670,"Final":9671,"GD":9672,"Global":9673,"Honda":9674,"ILE":9675,"Import":9676,"Jap":9677,"LSTM":9678,"Mike":9679,"Nav":9680,"Optim":9681,"Published":9682,"RU":9683,"SI":9684,"Sc":9685,"She":9686,"Session":9687,"Scaler":9688,"Tes":9689,"Tri":9690,"Version":9691,"XC":9692,"York":9693,"Yellow":9694,"Zip":9695,"[{\"":9696,"]==":9697,"ails":9698,"cend":9699,"capital":9700,"dde":9701,"fname":9702,"fmt":9703,"gsub":9704,"histogram":9705,"iate":9706,"jane":9707,"lates":9708,"mant":9709,"madam":9710,"mkdir":9711,"nd":9712,"nal":9713,"ners":9714,"normalized":9715,"ola":9716,"occupation":9717,"ping":9718,"pot":9719,"purchase":9720,"sg":9721,"sol":9722,"system":9723,"smith":9724,"sys":9725,"speech":9726,"tensor":9727,"validate":9728,"voice":9729,"votes":9730,"you":9731,"zil":9732,"}<":9733,"}\"\"\"":9734,"}).":9735,"Ġ):":9736,"Ġradi":9737,"Ġ));":9738,"Ġahead":9739,"Ġaug":9740,"ĠĠĠĊĠĠĠĠĠĠĠĠĠĠĠ":9741,"straction":9742,"eron":9743,"heapp":9744,"orrow":9745,"only":9746,"onym":9747,"Ġcraw":9748,"Ġcnt":9749,"Ġtheorem":9750,"lephone":9751,"levels":9752,"Ġflow":9753,"Ġfigure":9754,"umb":9755,"ara":9756,"arator":9757,"Ġsaw":9758,"Ġscatter":9759,"debug":9760,"demic":9761,"ittle":9762,"Ġpr":9763,"Ġpan":9764,"Ġreduces":9765,"Ġocc":9766,"ctor":9767,"liver":9768,"likes":9769,"strict":9770,"Ġanswers":9771,"Ġancestor":9772,"ĊĠĠĠĠĠĠĠĊĠĠĠ":9773,"ĊĠĠĠĠĠĠĠĊĠĠĠĠĠĠĠ":9774,"alled":9775,"Ġwrap":9776,"Ġever":9777,"locating":9778,"Ġmist":9779,"Ġmorning":9780,"Ġbx":9781,"Ġbind":9782,"Ġbot":9783,"Ġblan":9784,"Ġdtype":9785,"Ġdummy":9786,"ĠnumDays":9787,"analy":9788,"Ġ'..":9789,"rief":9790,"ĠisSorted":9791,"tex":9792,"tection":9793,"team":9794,"elt":9795,"elve":9796,"Ġveh":9797,"Ġlr":9798,"Ġliter":9799,"iso":9800,"ĠSite":9801,"ĠSome":9802,"ĠScikit":9803,"Ġstay":9804,"Ġstudy":9805,"olla":9806,"Ġ57":9807,"ĠPascal":9808,"ĠPriorityQueue":9809,"Ġprod":9810,"advantages":9811,"Ġmale":9812,"Ġmalic":9813,"Ġranking":9814,"icate":9815,"ĊĠĠĊĠĠ":9816,"ĠCard":9817,"ĠClose":9818,"idf":9819,"ĠJoe":9820,"ĠĊĠĠĠĠĠĠĠĊĠĠĠ":9821,"ĠTry":9822,"ĠTHEN":9823,"ĠTrie":9824,"igr":9825,"ĠFun":9826,"ĠFore":9827,"ĠField":9828,"Ġ-,":9829,"peat":9830,"__()":9831,"Ġher":9832,"Ġhou":9833,"Ġhapp":9834,"Ġhappy":9835,"Ġhorizontal":9836,"Ġyyyy":9837,"Ġranges":9838,"ĠADD":9839,"ĠApril":9840,"ĠNA":9841,"ĠNY":9842,"ĠNon":9843,"Ġje":9844,"async":9845,"Ġsed":9846,"coefficients":9847,"rench":9848,"Ġdeal":9849,"Ġdequeue":9850,"Ġdetection":9851,"wordCount":9852,"ĠcharCounter":9853,"Ġ*,":9854,"dddd":9855,"consumer":9856,"--){":9857,"ĊĠĠĠĠĠĠĠĠĠĠĠĠĠĠĠĠĠ":9858,"Ġstrto":9859,"Ġmeet":9860,"vey":9861,"ĠfindGCD":9862,"headlines":9863,"Ġ83":9864,"Ġ88":9865,"ĠWor":9866,"Ġexpl":9867,"Ġ61":9868,"ĠnewDate":9869,"ĠMin":9870,"ĠMIME":9871,"lying":9872,"mpleted":9873,"SECRE":9874,"ĠDis":9875,"ĠDrop":9876,"ĠDNA":9877,"ĠHH":9878,"ĠHanoi":9879,"ĠHuffman":9880,"Reversed":9881,"('*":9882,"ĠOdd":9883,"ĠOUT":9884,"Ġoriented":9885,"ĠBX":9886,"ĠBu":9887,"ĠBrown":9888,"])(?=.*[":9889,"Ġaged":9890,"ĠgetX":9891,"ĠgetEmail":9892,"ĠgetAverage":9893,"\")]":9894,"Incre":9895,"Ġ900":9896,"inputList":9897,"myClass":9898,"myDiv":9899,"perfect":9900,"ĠrandomNum":9901,"Ġcompat":9902,"step":9903,"ĠsetId":9904,"Context":9905,"charCode":9906,"urer":9907,"ĠLength":9908,"[]{":9909,"Ġdoubly":9910,"ĠsortBy":9911,"ĠĊĠĊ":9912,"ĠĊĠĊĠĠĠĠĠĠĠ":9913,"apYear":9914,"Ġ/\\":9915,"sumOf":9916,"dateString":9917,"experience":9918,"ĠEvent":9919,"aborn":9920,"Ġsubstit":9921,"structure":9922,"anger":9923,"undant":9924,"ĠtextView":9925,"Ġmydb":9926,"ĠmyFunc":9927,"ami":9928,"countries":9929,"vertices":9930,"ĠtempIndex":9931,"Ġoutcomes":9932,"setText":9933,"Ġrgba":9934,"Ġapplet":9935,"Ġtotaldef":9936,"Ġparses":9937,"ArraySum":9938,"Ġindexed":9939,"monstrate":9940,"ĠRange":9941,"ĠRetrieve":9942,"ĠRGB":9943,"Ġkg":9944,"subject":9945,"subtree":9946,"subtract":9947,"ĠInher":9948,"ĠIntelligence":9949,"ĠdateString":9950,"Ġunits":9951,"Ġprece":9952,"ĠlongestPalindrome":9953,"pool":9954,"ĠsortedArray":9955,"maximum":9956,"maxValue":9957,"ĠGro":9958,"ĠGlobal":9959,"Chris":9960,"Choose":9961,"Chicago":9962,"profile":9963,"ĠrightPoints":9964,"ĠStatic":9965,"pygame":9966,"helper":9967,"Compress":9968,"Compound":9969,"fromkeys":9970,"Ġbreed":9971,"ledge":9972,"shdw":9973,"ĠmatrixB":9974,"!\"))":9975,"ĠMyTable":9976,"ongoose":9977,"ĠletterGrade":9978,"Stage":9979,"Ġforms":9980,"ĠnextNum":9981,"ĠtargetSum":9982,"userInput":9983,"userID":9984,"Ġabstraction":9985,"ĠusersSELECT":9986,"Ġgrav":9987,"Subject":9988,"Ġpointing":9989,"ToCheck":9990,"ToFahrenheit":9991,"training":9992,"news":9993,"Ġdependent":9994,"ventDefault":9995,"temperatures":9996,"Ġhandles":9997,"Ġplain":9998,"Ġmoving":9999}